00
00
01
00
01
FF
FF
00
00
00
00
00
05
06
FE
FF
00
01
01
00
00
01
FF
FF
01
FF
01
00
FF
00
00
FF
00
FE
04
FF
04
FE
05
05
02
02
F9
02
FB
04
06
09
0B
09
01
00
01
00
00
FF
01
00
FF
FF
02
05
FF
FB
FA
F5
FD
FE
FF
02
FF
02
02
FE
02
07
0D
16
12
0E
03
FE
01
FF
FF
00
F5
03
FF
FC
FF
FD
FB
FD
FA
FC
FA
00
FD
FF
02
04
07
0A
09
04
FB
02
F7
FE
01
01
FF
FF
F7
01
03
FE
FB
FA
FC
FE
02
FD
FD
00
01
00
FE
01
01
01
FF
00
F6
F5
F2
F7
FE
03
00
01
01
FF
FF
FF
F8
FB
02
01
02
FF
00
FE
00
FD
FE
FF
01
FF
02
00
FB
FA
FA
FA
FB
FE
FF
00
FD
03
FD
FC
F9
FF
FE
FE
FF
00
FF
FE
FF
FE
00
01
FF
01
FE
FF
FC
FF
03
02
03
FF
FE
00
FC
02
FD
FA
F9
FE
FD
00
01
00
00
FD
FE
01
FF
FD
FD
F9
F5
FA
F8
FD
FE
02
04
FC
02
00
FE
FD
FE
FA
FA
FF
01
02
FE
FF
FD
FE
FD
00
FC
FB
F4
F1
F2
F4
F4
F5
F7
01
02
F9
FB
FF
FC
FE
FE
F9
FA
FE
00
FD
FF
00
01
FE
00
FE
FA
F4
F3
F6
F9
F8
F6
F8
FB
01
05
FC
FA
FE
FA
FB
FD
FA
FC
FF
FF
00
00
00
FF
02
FE
FA
FC
FB
00
FE
FF
FE
FD
FD
FA
00
05
F9
03
FD
FE
FB
FC
FD
FC
FF
FE
01
00
00
01
00
FD
FA
FF
01
02
00
01
02
00
FE
FF
F6
FB
07
02
FE
FE
FE
FA
FE
02
02
01
00
01
03
00
FF
FC
FC
01
02
01
FF
02
04
06
FE
02
F4
FE
05
FE
FE
FF
01
FD
01
04
03
00
00
02
01
01
02
FE
02
03
FF
00
01
00
03
03
02
07
F8
F5
02
01
00
01
00
FC
FE
00
03
01
00
03
02
01
02
FF
01
00
FF
00
00
01
04
04
01
FE
02
F8
FF
01
02
FE
FE
FA
FC
FF
02
FF
00
FF
03
01
FF
02
01
00
FE
02
02
04
05
01
00
02
00
EE
FD
02
03
00
FE
FB
FE
FF
FF
00
02
02
02
FF
00
03
00
FF
01
01
02
00
01
01
FE
03
FB
F2
FA
FF
FF
01
FC
FB
FF
FF
01
01
FF
02
02
00
03
FE
FE
FF
00
00
FF
00
02
FF
00
03
FC
F6
F8
00
FF
06
FC
FD
FE
FF
00
01
FF
01
01
03
02
00
FF
00
01
02
00
02
FF
FF
02
FF
FE
F1
F6
FF
01
06
01
FF
FD
FD
00
01
00
02
05
04
03
01
02
01
01
00
02
FF
00
00
02
00
FA
F2
F6
00
FF
05
02
00
FE
00
01
FF
01
03
01
03
03
02
05
00
00
04
02
01
00
FE
05
FF
00
FC
FD
FF
01
01
02
00
FD
FE
FF
01
FE
00
00
04
05
04
02
FF
02
03
01
02
FC
FE
02
03
FE
FF
FD
FE
00
00
FE
FC
FA
F9
FE
00
00
FF
FD
01
00
FE
00
FE
FE
FE
FB
FF
FA
FF
00
00
05
05
FE
FF
01
00
01
00
FF
FE
FB
FC
FD
FD
FB
F7
F5
F8
F9
FA
FA
F9
F9
FC
FC
FE
02
04
04
02
00
FF
01
FE
01
00
01
FF
FE
FB
FC
FB
FA
FC
FB
FC
FB
FD
FD
FD
FE
FF
FE
FC
01
04
FD
FF
01
00
00
02
00
01
01
00
FF
FF
FE
FF
FD
FF
FE
02
FF
FD
01
FF
02
FF
00
02
02
05
FF
FD
FF
01
FF
00
05
01
01
FF
00
FE
00
FF
FF
00
01
02
02
01
00
01
02
04
00
00
01
01
FF
00
FF
FF
FF
00
00
00
00
00
00
FE
FF
00
00
FE
FE
FF
FC
FE
FE
FE
FF
00
FC
FC
FB
01
00
01
01
// --- neuron 1 (row 1) ---
00
FF
01
01
00
FF
00
00
01
FF
01
FF
02
02
FB
00
01
01
01
FF
00
00
01
00
FF
00
00
01
01
00
00
01
FF
FC
02
04
04
07
08
05
04
FF
06
05
04
00
01
04
01
06
06
00
FF
00
FF
FF
FF
00
FE
02
00
02
03
0A
FF
FB
FB
F9
FC
08
08
09
06
04
02
FF
FF
00
02
01
FD
00
01
FF
01
01
06
05
06
FE
02
FE
02
00
F9
F8
FD
02
00
00
04
07
03
FC
F6
F7
FB
FE
FF
FD
FF
00
00
04
07
0C
07
07
04
01
08
07
FC
F6
F5
FD
FF
03
03
06
FF
FE
F7
F5
FE
FF
FD
FD
FD
FC
FF
00
08
00
06
06
06
00
07
FF
FB
FA
FA
01
03
FD
FE
FF
02
00
F3
FB
FF
FD
FD
F8
F7
FA
FF
FC
F9
F9
FF
00
FD
F9
FE
02
01
02
01
02
FE
FE
FF
02
03
FF
F5
FD
FC
FD
FD
FF
F8
FD
00
FB
F8
FB
F9
FA
FA
FF
FB
03
03
00
01
FE
FE
00
FF
00
00
FF
FA
FC
FD
FE
FE
01
FF
FD
04
03
FB
FE
F9
F9
FC
FF
03
03
04
04
03
FA
FA
FE
FF
FD
FB
F6
FA
FE
FD
FF
00
01
FE
01
04
03
FF
FF
FC
F8
FE
04
06
FF
02
04
03
FF
FD
01
00
FD
F6
F9
FB
FF
FF
01
01
00
FF
02
05
04
00
FE
FC
F9
FD
01
00
FA
FC
04
04
00
FD
03
00
FD
F7
F7
FD
FC
FD
FE
00
F6
FD
03
05
02
03
03
FC
F7
F9
00
FF
FB
FD
05
00
FE
00
06
02
FC
FC
FB
FB
FC
FE
FE
FF
FA
FE
02
00
04
05
04
FF
FD
FE
03
03
00
FC
01
FD
FB
00
06
00
F7
00
FC
FE
FB
FC
FE
FA
FA
FD
01
FD
03
02
03
00
FF
FD
FD
01
FD
FB
FC
FD
F7
00
05
00
F9
FC
F8
FA
FB
FC
00
FD
FC
FE
FC
02
04
02
03
FE
FE
FE
FE
01
FF
FF
F8
FB
FB
00
01
FC
FD
F4
F6
F8
FB
FE
FC
FE
00
FA
FE
02
FF
02
FF
FC
FE
FC
FE
FF
FD
F8
F8
F6
F9
01
02
FD
FB
F6
F4
F5
F9
FD
FB
FC
FE
F8
FA
05
FE
FD
FC
FD
FD
FC
FB
FB
FD
FA
F5
F4
FC
04
00
FF
FC
F8
F8
FA
F5
F9
F8
FB
FA
F5
F5
FF
FF
FC
00
FE
FC
F8
F8
F9
F9
F7
F1
EF
F7
03
02
00
FF
FB
FB
FA
FC
01
00
01
FE
FE
FF
05
FD
03
00
FF
FB
F4
F9
F7
F7
F5
EE
EC
F4
FF
04
05
03
01
01
06
04
01
FF
FF
FC
01
03
FE
FE
04
01
FC
F9
03
FE
FD
00
FE
FE
F9
FD
02
05
08
03
01
02
05
03
05
03
02
00
FE
02
FF
FF
02
00
FA
F8
01
01
FE
00
00
FF
FD
00
00
FF
03
06
04
04
05
02
FE
04
03
04
01
02
00
FF
FF
FC
04
02
06
06
FE
FF
02
00
FF
00
FE
01
01
05
05
06
05
03
FF
02
04
06
FF
01
FF
FD
FD
FF
05
08
06
01
02
FF
FE
FD
FC
FC
FB
FC
F9
00
04
01
00
FF
FB
FB
06
07
06
01
00
01
00
00
00
00
02
FA
F9
00
FB
FB
FF
00
F8
FD
FD
F7
FB
02
00
FC
F8
F8
F9
F8
FF
01
00
00
02
FD
FD
FF
F9
FB
FB
FD
FF
FE
FA
F8
FA
F9
F9
FC
00
01
FF
FA
F6
F8
FA
FA
04
FF
00
00
FB
02
00
FB
F7
F9
FB
00
FD
FB
F7
F7
F8
F6
F4
F9
FA
FB
FD
FE
FC
00
01
01
05
01
01
01
00
FE
00
FE
FC
FF
01
01
FD
FC
FE
FE
FD
FF
FA
FB
FC
FF
FF
FF
02
FE
FF
00
FF
01
00
FF
00
01
FC
00
01
04
01
01
01
00
01
02
FF
FF
02
FE
FF
07
03
02
02
01
01
00
00
FF
// --- neuron 2 (row 2) ---
00
FF
00
00
FF
FF
FF
00
00
FF
FF
00
04
05
04
03
01
00
00
01
FF
FF
FF
00
00
00
00
01
00
00
FF
00
01
01
FE
FE
00
00
FF
FE
FD
01
FE
F6
FD
FD
FF
FD
FF
00
FB
FB
FF
00
00
00
FF
00
00
FE
F9
F8
F6
F3
F5
F8
F4
F6
F7
F1
F1
F2
F0
F3
F0
EC
EC
F2
F4
FD
FF
01
FF
01
00
01
01
FE
FB
FE
FA
FE
02
02
05
06
01
05
02
02
FE
FA
F7
F7
F8
FA
F8
FA
FB
FE
01
01
01
FB
FA
FB
F6
FD
02
01
04
04
00
00
01
02
02
01
FE
02
02
01
01
02
02
04
FF
06
06
02
00
FF
F2
07
01
04
03
06
07
01
02
03
02
03
02
02
01
00
04
FF
00
01
02
02
05
02
04
FA
00
05
FC
00
05
FB
FC
01
02
00
02
01
01
01
01
02
03
01
02
03
01
01
00
FE
07
0C
0B
FE
01
02
FF
FE
F8
FB
FF
01
FF
FE
01
03
03
01
01
03
04
03
04
03
02
00
00
FD
FF
0B
06
02
FC
06
FE
FD
FE
FF
FF
FF
FE
FD
FE
00
FF
FF
04
05
05
02
02
01
01
02
00
FF
FD
08
0B
02
FF
05
F7
F5
FF
FF
FD
FC
FC
FC
FE
FF
00
FE
02
05
05
01
01
FF
00
FF
FE
02
FE
03
01
07
FC
01
FC
F8
FF
FE
FE
FA
FE
FD
FC
FE
FC
FA
FB
00
01
01
00
FD
01
FE
FD
02
05
04
07
06
FD
00
FD
F6
01
01
00
FA
FF
00
FD
FC
FB
FA
F9
FB
FF
FE
FE
FD
FC
FE
FF
03
00
FC
02
01
FF
F7
FD
F8
04
FF
FD
FD
02
FF
FE
FD
FF
FD
FA
FB
FF
FF
FE
FD
FD
FD
FD
01
02
FC
FE
FE
00
F8
FD
FD
05
00
FF
FE
FD
FE
01
FE
FC
FC
FB
F9
FC
FE
FE
FD
FE
00
00
FE
FD
FB
F9
03
03
FE
00
01
02
00
FD
03
FF
FE
FE
FC
FD
FC
FD
FC
FC
FD
FF
FE
FE
FF
00
01
FE
FA
06
04
04
FF
FF
03
01
04
00
FF
01
FE
FE
FD
FE
FD
FB
FC
FD
00
FF
01
04
00
FF
01
FF
F8
0A
0A
02
FF
FD
05
01
04
FE
00
00
00
FF
FD
FC
FE
FB
FC
FC
00
02
03
03
00
01
FD
00
01
09
09
01
03
01
04
02
02
00
00
00
FD
FE
FD
FE
FC
FC
FF
FF
05
03
01
02
FE
02
FE
00
07
00
04
FC
04
02
09
08
00
00
00
00
02
FF
FE
FF
FE
FF
03
05
04
00
03
01
03
06
02
05
08
03
FE
FF
FE
05
0A
0A
03
04
02
01
02
02
00
01
02
03
03
02
02
03
03
02
04
04
FF
07
0A
07
00
00
FE
06
0D
05
06
0A
07
05
07
05
03
03
00
03
02
02
03
03
04
03
02
02
02
0B
06
06
08
FD
02
03
0D
04
02
05
05
05
04
05
02
02
02
01
00
03
01
03
04
02
02
04
04
07
05
04
03
FD
FE
00
0A
02
00
02
01
01
02
FD
01
01
03
02
04
03
02
03
02
03
03
00
05
01
FE
FB
03
FF
00
0B
04
03
00
00
FF
FD
FF
FF
01
00
FE
02
01
FF
FF
00
03
05
03
FF
FF
02
FD
FD
01
00
00
00
FF
FA
FE
FE
02
00
02
02
01
04
02
03
04
02
04
02
FD
01
00
FF
FB
04
06
02
00
FF
00
08
FD
F9
F9
F8
FB
F8
F6
F8
FB
00
FF
FE
00
FA
F9
00
05
00
FF
FF
FC
FE
01
FF
00
FF
01
01
01
FF
01
FF
FE
FB
FC
03
FF
F9
F7
F8
FF
01
FF
03
0C
FF
FC
FE
FD
FF
00
00
00
00
00
00
00
FE
00
FE
00
FF
01
04
03
01
01
03
01
FD
FA
FA
FD
02
01
00
FE
01
FF
00
00
// --- neuron 3 (row 3) ---
01
FF
FF
00
FF
00
01
01
00
FF
00
FF
FF
FF
FE
FE
00
01
01
00
00
01
01
01
00
FF
00
01
00
FF
00
00
FF
FE
FF
01
01
FE
FE
FB
FE
FA
FB
FA
FC
FF
FF
02
02
03
01
FF
01
00
01
00
00
01
02
FB
FF
FA
FF
00
01
FC
FC
FF
01
00
00
FC
FD
FF
00
02
01
04
06
04
00
FF
00
00
01
FF
FF
FB
09
01
01
04
04
01
01
01
01
00
FC
FF
FC
FB
FC
00
00
01
FE
F9
FF
03
04
FF
00
00
FC
FF
01
02
02
03
01
01
01
FF
FE
FD
FB
FD
FC
FD
FF
00
FF
03
05
08
0B
09
01
FF
00
00
01
FF
FD
FE
02
FF
00
00
00
FF
FC
FF
FF
00
03
02
01
FF
02
01
02
04
01
04
00
00
00
03
02
FF
FB
FF
FE
FC
FC
FC
FF
01
01
01
02
00
01
FE
FE
FE
FD
FC
FE
F9
F5
FB
03
08
FE
03
02
FC
F5
FB
FA
F5
FA
03
02
00
01
01
02
00
01
00
01
FF
FF
FD
FD
FB
F9
FC
00
03
01
F3
06
FD
F8
FA
F8
F8
02
02
00
00
01
00
FF
00
00
01
FF
FF
FE
FF
01
02
FC
F7
F4
FD
FE
F9
FE
F9
F9
FE
00
FC
01
00
01
00
03
01
FD
FE
FA
FE
FF
FE
00
03
04
07
04
FF
FC
F9
FF
FB
F4
F4
FB
03
01
FE
02
01
FF
01
FF
FB
F8
F8
F9
FE
01
00
01
04
03
FF
FF
FD
FF
FC
FF
FD
FA
F9
00
01
FF
FD
02
02
FF
02
00
01
FE
FB
FB
FF
00
FE
F9
FB
FE
01
00
05
00
00
FE
FE
FB
01
FC
FE
01
02
05
04
00
02
05
01
03
01
FD
F9
FD
FF
F9
F4
F8
01
04
00
01
F9
02
FF
FD
00
FC
FF
00
02
FF
01
00
FE
FC
FF
01
02
FF
FB
FC
00
FF
FD
F8
FB
06
03
FE
F8
04
00
01
FD
FD
FF
00
FB
FC
FF
02
FE
FC
FC
FD
00
01
FC
FD
FC
01
02
00
FD
04
02
F9
FC
01
03
01
FC
FD
02
05
FF
FE
02
04
06
03
FC
FD
FE
FF
FC
FD
FD
FD
01
FC
FD
FD
FA
FF
03
FB
02
02
FB
FD
FE
FA
FB
FF
02
01
02
05
FE
FC
FA
FD
FA
FD
FF
FE
FF
FF
F7
F7
FC
FA
00
00
00
03
FD
FD
FA
F9
F8
FF
04
02
03
01
02
00
FB
00
FC
FE
01
FF
FF
01
F9
F9
F7
F8
FD
FA
FE
00
00
FB
FA
F8
FB
FB
02
FF
00
00
FF
FF
FE
FF
FD
F9
02
00
00
02
FC
FB
F7
FE
00
04
FE
FE
01
FA
FA
FB
FC
FF
FC
FC
FC
FE
03
FF
FC
F9
FC
FC
00
01
00
00
00
FA
FA
F7
FF
01
02
01
01
FA
F9
FC
FC
FE
FE
FB
FC
FB
00
FE
FD
FB
FC
FD
01
03
00
01
02
F9
F8
02
00
04
00
00
01
FC
F8
FC
FF
FB
FA
FA
FA
F8
FF
FE
FC
FA
FB
FF
FF
02
02
04
FF
FC
FC
FF
FD
03
00
01
03
FF
FB
F9
FD
FE
FA
FB
FB
FA
FD
FD
F9
FE
FD
03
00
02
03
03
02
FD
FC
08
FD
00
FF
01
FF
01
FF
F9
F8
FA
FB
FB
FA
FB
FA
F8
F7
02
FD
01
00
06
04
01
FD
FB
03
FF
00
00
00
F9
FE
FD
FE
00
FD
FE
FE
00
02
FF
FB
FC
FD
02
03
05
03
02
FF
04
FB
FE
03
05
FF
00
FF
F8
FD
FB
F5
00
FF
05
05
03
07
0A
0E
11
10
0E
0A
04
02
FD
03
07
05
05
01
04
01
00
00
00
FE
00
04
FF
F8
02
03
06
09
0B
0F
0C
0B
01
FB
FE
FC
FB
FC
FF
FB
FB
00
01
00
00
FF
FF
00
02
06
FA
F6
FF
00
06
07
FD
FB
F5
F6
F6
FD
02
01
FE
F7
FB
01
00
00
00
01
// --- neuron 4 (row 4) ---
00
00
00
00
00
00
FF
00
FF
FF
00
FF
FC
FC
01
00
00
00
FF
00
01
00
00
00
01
00
01
00
00
FF
01
00
04
02
00
01
FD
FC
FA
00
00
01
FF
FC
00
FF
00
FE
FE
FE
F9
FD
01
01
01
00
00
00
FF
FE
FC
FE
FD
FE
FF
00
FE
FF
00
F5
F4
F7
FA
FA
F7
F8
FB
FE
F9
FC
03
02
00
01
FF
01
05
FD
FC
FE
00
FC
FC
FF
FD
FC
F9
F2
F1
F7
FF
FB
FC
01
F6
F7
F7
FD
03
00
FE
00
00
FC
03
FD
FC
FE
FE
04
F6
F8
F9
FF
FF
FF
FF
FA
FA
FC
FA
FA
00
FD
FA
FD
FA
FC
FE
FF
01
FF
04
FF
00
FE
FC
FD
00
FB
FD
00
FE
FE
FF
00
02
03
03
FD
FE
FE
FE
02
F7
FA
FE
01
FF
02
05
01
01
FB
00
FF
FD
F8
F8
FE
01
01
FF
FF
01
02
FE
FF
FE
FF
FF
FF
FC
F7
FB
FE
01
03
07
FF
FD
F9
02
FD
FB
FB
00
FF
01
00
FF
FD
01
00
FF
FF
FE
01
FF
00
FB
FA
FD
FF
00
FE
06
FC
FC
F7
FC
FB
FB
FE
01
00
00
01
01
FC
FD
00
FE
FE
01
01
00
03
FA
FA
FD
FC
00
F5
FF
FB
00
F9
FD
02
00
01
02
00
01
02
00
FF
FE
FE
FE
FF
00
01
FE
00
F8
F9
03
FF
FF
FA
F8
FC
FC
FE
02
01
01
00
02
03
02
03
FD
FC
FC
FF
FF
01
FF
02
FE
FE
F4
FD
05
00
FF
00
F5
F9
06
03
05
02
02
05
04
07
06
FD
F6
FD
FC
FF
FD
00
00
00
FF
00
F7
0A
08
FD
01
F7
F3
F2
07
03
05
01
05
07
05
02
F8
F0
FA
02
FE
FE
FD
FE
FE
FB
02
FE
FE
0A
07
06
00
F9
F9
F9
FA
00
00
04
00
01
FA
F3
F1
F8
00
FF
FC
01
FE
FE
FB
00
FF
FF
00
03
0B
07
02
01
03
FE
F9
FA
FF
04
00
F7
F1
F4
FD
00
FF
00
FE
FE
FC
FE
FF
FE
FF
FD
00
03
06
05
FE
FB
02
FF
F8
FC
FF
F8
F8
F7
F7
00
02
05
03
FE
00
00
FF
FE
02
01
FE
F8
FB
02
FF
04
FA
FC
FD
FE
F9
FC
FB
F3
F1
FA
FF
02
01
02
00
FF
02
03
03
02
FF
02
FF
00
FE
00
F8
0B
FF
FA
FE
FC
F8
F8
FA
FC
FF
00
02
02
01
02
FC
FF
FF
FF
00
FE
02
04
01
00
02
04
FE
05
01
FE
F6
FE
FF
00
FE
01
03
01
00
00
03
02
00
FF
00
FE
01
01
FE
04
01
02
06
F9
F4
06
FF
00
FF
FF
00
FF
FB
FF
FE
00
02
02
00
02
01
01
00
01
02
00
FE
01
00
FF
00
FC
02
FE
FF
00
FE
FC
FB
00
FD
FF
04
03
FF
01
FF
02
03
04
01
00
01
02
02
01
04
03
00
00
F8
FD
FE
FC
FE
F4
FC
02
FC
FC
00
00
01
01
FF
01
01
01
01
00
FE
FD
FF
02
04
04
F7
FF
EF
02
FD
01
05
02
05
03
02
FF
00
03
00
00
00
00
FE
FD
01
01
02
00
00
FE
01
05
FD
07
F4
04
FF
00
FE
FA
06
03
05
FF
02
02
FF
FD
FD
00
FD
FD
02
02
04
03
FC
FA
01
03
09
0C
F7
00
01
01
00
FD
FF
FD
01
FE
FA
00
00
FE
F8
F8
FB
FA
FB
FF
FD
02
00
FC
F1
03
05
0F
02
FF
FF
00
FE
FF
FE
F8
F3
F4
F2
F1
F1
F4
F7
FA
FC
F8
F9
F7
FF
04
02
FE
FB
FB
FD
00
01
FF
FF
00
FF
FF
01
00
FE
FC
F9
F9
F7
F8
F9
FA
F9
FB
FB
FA
FE
FE
F8
F7
FE
FC
FF
01
00
01
01
00
00
FF
FF
00
FE
FC
FD
FE
FD
FB
F8
FD
FC
FB
F9
FA
FE
FF
FF
FF
01
02
00
00
01
01
// --- neuron 5 (row 5) ---
00
00
01
FF
00
00
FF
FF
FF
FF
01
00
01
02
FF
FE
00
01
00
01
00
00
00
00
00
FF
01
01
FF
FF
01
FF
01
02
00
01
FF
FF
FF
FF
02
01
FE
FD
00
00
00
01
FD
FC
04
06
FF
01
00
00
00
00
01
02
03
00
FF
FC
F9
00
F7
FB
FF
FB
FD
FA
FB
FC
FA
F6
FB
F5
F9
FF
FD
FE
00
FF
FF
FF
FB
04
02
08
0B
FD
FE
04
01
FD
FF
02
01
00
00
FD
FC
F5
F7
FA
00
05
00
FD
FE
00
00
06
FD
09
FF
FF
FD
FA
01
04
03
03
02
FF
03
01
02
FE
FD
02
03
FB
01
FC
FD
01
04
05
00
01
03
05
01
FF
01
01
02
01
FE
00
FF
FF
02
02
02
01
00
01
FF
FE
FC
FA
F9
FC
09
06
FF
FC
FD
08
00
04
01
01
00
00
00
00
01
01
00
02
01
01
00
00
03
02
00
FE
FC
FD
FE
05
FF
FE
01
FF
02
FE
FE
FF
02
01
01
01
00
00
00
04
00
00
00
00
02
02
02
01
04
FE
01
07
03
00
01
FE
FE
FD
FF
00
00
00
00
02
02
02
FF
00
02
01
01
02
FF
01
02
FF
01
01
00
0A
00
FF
01
FD
FB
02
01
01
01
02
00
00
00
FC
FB
00
02
03
02
02
03
02
04
04
02
FF
01
FF
00
02
FF
F6
02
05
04
04
04
01
01
FD
F9
F9
FC
01
02
01
01
05
01
02
02
03
01
FE
03
0A
FC
01
00
00
03
05
04
03
FE
FD
FA
FA
FA
FF
02
02
FF
FF
01
02
00
01
01
02
07
01
03
08
FA
FE
03
FD
02
02
FC
FD
F8
F9
FA
FC
01
05
03
02
FF
01
01
03
02
03
FC
FF
03
FF
02
08
FC
FF
00
F6
F2
F8
F6
F8
F8
FB
FD
00
02
02
02
02
02
FE
03
02
03
FD
FB
FD
F2
FC
05
06
FF
FE
FE
F4
ED
F6
F6
F9
FC
FF
FF
03
02
02
02
00
01
FE
01
FF
FC
FD
FB
F8
F1
FD
04
FC
FF
00
03
FC
FB
FC
FD
FF
FE
00
FE
03
04
04
02
FF
01
FD
FF
FE
F9
FA
FB
FA
F7
FF
04
FA
FC
03
05
02
01
FE
04
FF
00
02
01
02
05
05
00
FF
FE
FE
FC
FC
FA
FC
F9
FF
FD
FD
FA
F6
FF
FE
00
04
05
02
00
FF
00
00
FE
00
03
04
00
FE
01
FE
FC
FF
FD
FF
FE
FF
02
FC
FF
FB
07
F7
FC
07
05
05
01
00
00
00
01
03
07
06
FE
FE
FF
FD
FE
FF
00
FF
02
02
00
04
07
FF
00
FF
FC
04
01
04
02
01
01
05
04
01
03
02
FD
FE
00
00
01
01
01
03
03
07
02
06
00
FE
01
05
00
08
03
01
01
02
02
03
01
FF
FF
FE
FC
FF
FE
00
01
04
03
03
04
06
00
FF
02
00
01
00
02
0A
03
FF
00
04
01
01
01
FF
FF
00
01
FF
FF
02
01
02
01
02
04
07
FF
02
04
FE
00
00
02
00
03
05
04
03
00
00
01
FD
00
01
03
00
FE
00
00
00
01
02
04
05
05
04
05
FF
00
01
04
FC
FC
03
05
05
02
FF
FD
00
03
04
00
00
01
01
02
02
00
02
05
05
FD
FD
FF
00
FF
01
04
09
0C
04
00
FF
FE
FE
FD
00
03
02
01
00
03
FE
FD
00
FD
FB
FE
FE
F7
FD
03
FF
FF
00
FD
01
06
00
01
FE
FD
FB
01
FF
FD
FD
FF
01
01
02
FE
01
FF
F6
F1
F7
F8
FC
03
01
FF
00
01
F7
FF
F6
EC
F6
F5
F4
FA
FB
F8
F9
FA
F9
F9
FC
FF
FF
F8
F7
F8
02
00
FF
00
01
00
FF
00
00
00
00
FE
FB
FB
FB
FD
FD
FB
FB
00
FF
FC
FF
FF
01
00
FD
01
02
00
01
00
FF
// --- neuron 6 (row 6) ---
00
01
00
00
FF
01
00
FF
00
00
FF
FF
01
06
05
03
01
00
FF
00
00
00
00
FF
00
00
00
00
00
00
FF
01
02
02
02
FF
FD
F9
FC
00
04
09
FF
02
03
02
00
FC
FB
01
04
05
00
00
01
FF
FF
FF
01
09
08
04
02
03
FF
FA
00
01
01
FF
FE
FE
FD
FE
FF
FD
FE
00
FA
FE
02
FE
FF
01
01
FF
FC
01
04
0A
04
01
00
FF
00
01
FF
FF
FD
FE
FE
FE
FD
FE
FF
FF
00
0B
07
FC
FC
00
FF
FE
FC
FA
00
06
FF
00
00
FE
FF
00
FD
FD
FC
FF
FE
FF
FF
FE
FF
FF
02
FF
00
FE
04
04
FF
FF
FB
F9
FD
FF
FF
00
FF
01
FF
FF
FC
FE
00
FF
FD
FF
FF
FF
00
02
03
00
00
02
04
01
01
01
02
FF
01
02
FF
FF
FF
FF
00
FF
FE
02
02
02
01
01
FC
FE
FE
FD
FE
FF
03
03
FD
05
00
FF
01
FF
00
00
FE
FE
FC
FB
FD
FF
FE
01
00
01
01
FD
FE
FC
FE
FC
FD
01
04
05
FE
08
00
01
FF
FE
00
FF
FE
FC
FE
FB
FC
FE
FE
00
FF
02
02
FB
FE
FC
FD
FC
FE
03
02
FF
00
08
00
00
FF
FF
FE
FE
FE
FE
FC
FA
FC
FE
01
00
FF
02
03
00
FC
FB
FD
FE
01
00
FC
FE
FD
FF
FE
01
FE
FF
FE
FE
FE
FF
FD
FB
FD
01
02
FD
FB
FF
03
FF
FB
FB
FD
00
FE
FE
00
F6
FE
FE
FF
FB
FE
FE
FE
FE
02
02
FC
FA
FF
04
02
FB
FE
00
01
FE
FA
FE
FE
FF
FF
00
00
FF
FB
03
02
FF
FE
FD
FD
FF
04
01
FF
FE
00
02
FF
FC
FD
FF
00
FD
FB
FD
FE
FE
00
00
01
FE
FA
FC
01
FE
FB
00
FF
FD
04
FE
FD
FC
01
03
FF
FC
FD
01
FF
FE
FD
FC
FE
00
00
FE
00
00
FF
01
FD
FF
FD
04
01
FE
FE
FD
FC
FE
02
05
FE
FA
FC
02
00
FD
FB
FD
FD
FE
FF
FF
01
FF
00
FE
FD
07
00
05
02
FF
00
FC
F9
FD
03
04
FD
FD
FE
02
01
FE
FC
FC
FF
FF
00
00
02
02
F7
F8
FF
0C
05
04
01
01
00
FF
FA
FE
02
05
02
02
02
02
FF
FF
FD
FD
FC
FE
01
01
00
FF
FF
FD
00
06
F6
04
00
02
FF
00
FE
FF
02
03
04
04
04
FF
FE
FF
FD
FE
FE
FE
FF
00
FF
00
F9
01
FE
05
F8
FF
01
FF
FF
FF
FF
FD
00
03
03
02
02
01
00
FE
FE
FE
FD
FE
00
01
00
01
FB
FB
02
FC
FC
00
01
00
00
00
FF
FE
FE
FE
00
FD
FE
01
00
FF
FF
FE
FE
00
00
01
00
00
FC
FA
FF
FB
FA
00
01
FF
00
FE
FE
FD
FF
FD
FD
FB
FE
02
FE
00
FD
FF
FE
FF
00
00
00
01
F6
00
FD
FB
01
FF
00
00
00
FE
FE
FE
FF
FE
FD
FC
FF
02
FE
FE
FD
FE
FF
00
FE
FF
FF
FE
F8
FE
FF
FF
FC
FE
00
01
FD
FD
FE
FE
FF
FE
FD
FC
02
02
FF
FD
FE
FD
FF
00
FF
FF
00
FD
FB
FE
FF
00
FF
FF
FB
FE
FC
FD
FC
FF
FD
FE
FC
FC
02
04
FF
FB
FC
FD
00
FE
01
FF
00
F9
FF
FF
00
FF
01
FD
07
FE
F8
F6
F9
FE
FC
00
FD
FF
02
04
02
FB
FF
FC
FE
FE
00
02
FF
FF
FE
00
FF
FF
06
FC
04
01
FB
FB
FB
FD
FD
FB
FD
FA
07
06
01
00
02
FF
FF
01
04
FF
F9
00
FC
01
FF
00
00
06
08
03
01
04
02
01
00
FF
FE
FE
FC
FC
FC
00
02
FE
00
01
00
05
07
01
01
00
00
FF
FF
00
02
FF
08
09
03
05
FF
02
06
03
05
FF
FE
01
00
FF
00
FE
FE
FC
01
00
FF
01
// --- neuron 7 (row 7) ---
00
FF
01
FF
00
00
01
00
00
FF
00
00
02
02
01
FF
00
00
01
FF
00
FF
FF
00
FF
FF
00
01
00
00
01
FF
00
FF
01
02
00
FE
FC
FC
FE
00
FE
01
FE
FF
00
01
00
FF
00
01
01
01
00
01
00
00
FF
00
01
FF
00
01
FA
F6
FD
03
FA
F4
F6
F5
F6
F9
FC
FB
FB
FD
FF
01
01
FF
00
00
01
00
FF
00
FF
04
00
06
01
00
04
07
03
FE
FF
FB
F2
F3
F7
FA
FA
FA
FC
FE
00
01
FE
01
00
FD
FF
FD
F5
00
FE
FD
03
FB
00
01
02
03
00
FF
FF
F3
F6
F9
F8
F9
F8
FF
00
01
00
00
00
01
02
09
08
05
03
05
03
02
02
03
03
02
00
01
01
FD
F8
F4
F3
F7
F9
FA
FB
FF
FF
05
01
03
07
05
06
FC
02
01
02
06
02
03
01
FF
FE
FF
FE
FE
FF
F3
F9
FB
F8
F7
FB
00
00
05
01
02
08
04
02
01
00
00
02
02
02
FD
FB
01
00
03
02
02
FF
F5
F5
F3
F4
F7
FA
FE
00
00
03
FF
05
02
02
01
02
00
00
FA
FD
FD
03
08
04
04
04
FE
FF
F7
F7
F6
F9
F7
FB
FF
04
00
01
00
F9
05
FB
00
01
FA
F7
F9
FD
FE
05
0B
05
FF
FD
F8
F8
F8
F6
F8
FB
FD
FD
05
03
FF
02
FF
FE
F9
F3
FB
FA
F8
FA
00
05
06
09
08
03
FA
FB
FD
F7
F6
F5
F5
F8
FC
FE
05
03
02
03
FD
00
01
FB
FB
FC
FC
01
06
07
06
02
01
FC
FD
FC
FC
FE
FD
FE
F8
F7
FB
FF
04
FC
02
FC
00
01
02
FB
FF
FB
02
07
02
FF
FC
01
00
FF
FE
00
FC
00
03
FF
04
02
F9
FE
03
FB
03
00
00
01
FF
00
FC
FA
00
02
00
FF
FC
FE
FF
FE
FF
01
FC
FE
FF
00
01
04
05
FA
FE
FD
01
FD
00
01
05
03
FE
FC
FB
FE
00
FE
FC
02
FE
FE
FF
01
FD
FD
02
FD
00
00
06
FD
FE
FB
FF
F9
04
02
05
FD
FA
FD
F9
FE
FE
FC
F7
FC
FF
03
01
05
03
00
03
03
00
02
00
00
F7
F9
FE
FC
0D
03
FC
FB
FB
F7
F9
FE
FB
FA
F7
F5
F6
F9
FA
01
FD
01
02
02
FF
FF
FF
04
F5
F7
00
FF
05
01
FE
01
03
01
FC
FE
FE
01
03
FB
FB
F6
F3
FF
FE
FF
01
00
01
01
01
03
F2
F6
F8
00
01
00
00
06
05
06
00
FF
01
04
02
03
01
FE
F9
01
00
FD
00
FE
01
03
02
01
F2
F4
F6
FE
04
FF
01
07
07
04
00
FF
01
00
F9
02
02
FF
FC
00
FF
FF
FE
FF
00
02
02
03
F7
FB
FB
00
00
01
FD
01
01
01
01
01
00
02
FD
FD
01
03
01
02
FF
FC
FF
01
00
01
06
03
FA
FF
FC
03
FF
01
01
0A
FD
FC
01
00
02
FE
FE
00
01
00
00
01
FD
FC
02
FE
FA
01
05
F3
FA
FE
FF
02
00
01
FF
04
F8
FF
02
01
FE
FD
FF
01
00
FF
FF
FC
FE
00
FE
FE
FE
02
02
F7
F9
FA
01
01
FF
00
F9
FB
F7
FD
01
FD
FF
FE
00
03
02
FE
FF
00
00
00
02
02
01
FC
FB
05
FF
02
00
FF
00
F9
FE
FE
07
03
03
00
FC
FE
04
00
FF
FF
FF
FE
FD
02
02
01
FD
F9
FC
FC
02
04
01
00
FF
03
FF
0A
0A
0A
07
FF
F6
F5
F8
F7
00
FD
FE
01
FF
FD
01
FC
00
FF
FD
FE
FC
FC
01
00
FF
00
FC
FB
00
01
00
FE
FB
F8
F8
F2
F1
F6
F7
F5
FA
F8
F6
FF
02
00
00
01
00
FF
00
00
FF
00
00
01
00
01
00
FF
00
00
FE
F9
F9
FB
FC
FA
FF
01
00
00
01
02
02
01
FF
00
01
// --- neuron 8 (row 8) ---
FF
01
00
FF
FF
00
FF
00
01
FF
00
01
04
05
FF
FF
01
01
FF
00
01
00
01
FF
01
01
FF
00
00
00
00
FF
FF
FF
03
03
04
08
07
06
0A
09
03
01
FF
07
08
09
0B
09
06
02
FF
01
00
00
00
01
00
00
02
02
03
04
02
FC
02
02
FD
FD
03
04
06
0A
07
0C
0F
0F
0D
07
FC
F8
FF
00
00
01
FA
FC
02
03
05
01
FD
FA
FC
FF
FE
FC
01
FD
FD
00
04
03
07
04
05
09
02
FD
FD
01
00
02
F9
05
09
06
02
01
FF
FA
F9
FE
FF
01
FE
FE
FE
FE
00
00
00
03
03
05
03
FE
01
02
FF
00
FD
FA
FE
01
02
00
FF
FF
FF
00
FF
FF
FF
FF
FF
01
00
01
FF
FF
FD
00
02
FD
02
02
00
FC
03
01
FF
04
02
03
05
02
00
FF
00
00
00
00
01
FE
FE
FF
FF
FF
02
06
06
00
00
FD
FF
FE
01
02
FD
03
04
01
03
01
01
00
01
FF
FF
FF
FF
FF
FE
FE
FF
00
FE
06
07
03
05
FE
02
FD
02
00
FF
00
00
00
03
01
00
00
00
03
00
FF
FF
FE
FE
FD
FF
00
02
01
10
04
03
01
00
00
03
FE
FE
00
04
02
03
04
03
03
02
04
01
01
FE
01
FF
01
02
01
00
05
10
07
F7
F8
01
02
04
00
03
04
07
08
06
05
07
04
05
05
02
01
02
02
01
01
00
01
02
05
08
FF
F9
F5
02
04
06
09
06
06
0A
0B
08
09
07
09
09
08
04
01
03
04
01
FF
FE
FE
FE
02
06
05
06
07
00
02
04
06
09
08
08
07
01
03
02
01
01
01
03
01
02
06
02
FF
FE
FD
00
05
FE
F7
FC
04
00
06
06
02
05
03
FE
FF
FF
01
02
00
FE
FC
00
01
02
03
02
00
FF
FF
05
02
FD
F9
FA
F7
00
06
04
FD
FA
FE
FD
00
03
01
FF
01
FE
FE
00
00
02
03
00
00
03
02
03
01
04
06
FC
F9
01
02
0E
FE
FB
FA
FE
01
FF
FE
FF
FE
FE
FD
FF
00
02
03
01
02
04
02
03
01
00
04
FA
F8
FE
FF
0D
FE
01
FD
FE
FD
FD
FC
FF
00
FD
FC
FF
02
02
02
02
00
02
00
02
03
01
00
F2
F4
01
FE
04
FF
00
FF
FC
00
01
00
FF
FF
FF
FF
FF
00
00
01
02
01
02
00
00
04
02
FE
FB
F7
00
03
07
00
00
FE
FD
FE
00
01
00
01
FE
02
01
00
FD
FF
FE
FC
FD
FB
F9
FC
FA
FC
00
FB
03
06
02
01
00
01
00
FE
FF
FD
FF
FE
00
00
01
03
01
FD
FF
00
FF
00
FD
02
FF
00
F7
FE
FF
08
02
04
FD
FE
FF
FE
00
FF
FF
00
02
02
04
04
02
03
01
03
02
01
FF
FF
F9
00
F5
03
02
0A
07
06
02
FE
00
01
00
FF
FF
01
00
02
02
05
05
03
03
02
03
00
00
00
FD
05
F9
FF
02
01
07
04
04
FE
FF
01
FF
00
02
01
03
02
02
04
03
01
03
02
03
FF
FF
03
00
06
08
FE
00
01
00
04
06
04
06
05
04
FF
00
03
01
01
00
01
01
02
FF
01
04
04
03
04
04
08
FE
00
FF
00
00
07
01
04
08
06
03
01
02
02
00
00
00
05
02
00
00
FE
00
00
06
0A
02
00
04
00
01
FF
FE
01
03
04
01
02
06
02
FF
FE
01
03
04
06
FF
FF
00
06
03
03
01
03
02
04
04
00
00
00
FF
FE
01
03
02
FE
FF
FF
FF
00
00
01
01
04
06
04
04
02
00
00
00
01
FE
FF
01
01
FF
FF
01
01
FD
00
FF
01
00
00
00
02
00
02
00
01
03
02
FF
01
FF
00
03
02
00
FF
00
00
// --- neuron 9 (row 9) ---
01
01
FF
00
FF
01
00
00
00
00
00
01
FE
FF
02
02
FF
01
00
00
00
00
00
FF
01
01
00
01
01
00
FF
FF
FE
FE
00
FE
FF
FF
FE
FF
FF
00
0A
0A
06
FE
FF
FD
FE
05
FE
FD
01
FF
00
00
01
01
00
F7
FD
FE
FE
FE
FB
FD
FD
FD
FB
00
FE
02
06
FC
FA
FC
FB
FF
FD
FD
01
01
00
01
FF
00
0B
07
F8
F9
FF
04
FF
F9
F2
F4
FD
01
FD
FB
01
FA
FB
FD
00
F5
FC
FC
FD
FB
FF
FF
01
FD
09
07
FE
FC
FB
01
02
FC
02
FF
FF
FF
02
00
FC
FB
01
01
F0
F9
FC
FD
FF
FB
FD
FD
FF
00
09
0A
FE
FD
FC
FE
FB
F6
FB
FD
FA
02
00
03
01
FD
FA
FC
E9
F9
00
FD
00
FF
00
F5
01
02
FA
02
FF
FD
F8
F8
F6
F7
FD
01
FF
FF
FD
00
00
FE
00
F9
F3
03
FF
FD
FB
FC
03
00
02
FF
FC
00
FE
FA
F5
FA
F3
F9
FF
03
02
00
FF
FF
FE
FE
00
F7
00
03
02
FD
FC
FB
01
04
01
FD
FC
00
FA
FD
05
FC
F7
F7
00
FE
01
05
04
00
FB
FD
FE
F1
03
05
00
FB
F9
FA
02
F9
FF
FF
FD
FE
F7
03
06
01
FC
FC
FF
01
FE
05
07
01
FC
F9
FC
FC
F5
05
00
FB
FA
FA
FB
FE
00
FC
FD
FF
FA
FC
F5
FE
02
FE
FF
02
FD
06
06
06
FC
FE
FD
01
FA
05
02
FD
F5
F7
00
03
00
FE
FE
FF
FE
FD
F4
FF
FD
FF
01
FE
FE
02
03
02
FF
01
EF
FF
03
06
04
02
F8
FB
04
00
00
FD
FE
FD
FA
F8
00
03
01
03
FF
FE
03
02
03
02
FD
03
F4
00
07
07
01
FE
FC
FF
FE
FD
01
FF
FD
FD
FE
FF
00
FA
01
FD
FB
F9
01
FB
02
00
FF
FB
F4
FB
FE
FF
FE
F6
F6
01
FF
05
04
01
00
01
00
00
FD
F9
01
FF
F8
F8
FF
FE
05
00
FF
FC
F6
FB
FE
FE
F6
FB
00
01
03
02
05
00
01
FE
FE
FF
FA
00
01
02
F8
01
01
01
05
FB
00
FD
01
FB
F9
00
F6
F8
FE
FF
01
02
04
FB
00
FF
00
FD
FD
01
01
03
FD
03
FC
00
04
FC
FA
FB
F9
F8
FE
01
FA
F8
FD
FE
05
05
01
FA
00
00
01
FD
F7
F9
01
03
01
01
FD
01
05
FF
FB
FC
F9
FF
FD
FF
00
FE
00
FB
06
FD
FC
FD
FF
F9
FF
02
F6
F8
FA
FD
FF
FB
FC
03
05
03
FC
00
01
03
04
04
FD
FA
FE
00
04
07
FC
00
06
03
FA
03
FC
FF
FD
02
FF
FB
FE
02
06
04
01
FD
04
02
FE
FA
F7
FF
02
03
04
07
01
03
04
FE
FA
FE
02
02
FF
01
FD
FF
00
02
03
03
01
FF
02
00
FE
F9
F3
F9
FF
01
06
01
FC
FF
FF
FD
FD
F8
02
01
02
FF
00
02
FF
00
01
03
01
FD
04
03
00
FE
F6
F3
FF
07
00
02
FD
FD
01
FE
FE
01
00
03
02
00
FD
01
00
00
FE
04
02
04
06
05
06
02
FB
00
03
05
06
03
01
FF
02
F9
F9
FE
05
FC
F2
02
FF
FE
02
00
01
02
FF
07
01
FD
01
FD
FD
FA
03
02
05
00
FF
00
04
FD
FC
FD
00
FD
F8
01
04
FE
FD
FE
FD
FA
F6
FE
FA
F5
FA
FF
FA
FF
00
03
03
00
FF
00
05
00
F9
F7
FC
FE
FF
F9
F8
F9
EF
F2
FB
F1
EE
F4
F9
FD
FF
FF
00
FF
00
00
01
FF
00
00
01
02
FD
01
01
00
01
FB
F9
F8
F2
EE
F3
F9
F9
FD
F9
FE
FE
FD
FC
F8
FF
03
FF
00
01
FF
FF
00
F7
F5
F9
FF
00
01
FB
FC
00
00
FF
FF
FD
F9
FC
03
02
01
02
FE
FF
FF
00
00
// --- neuron 10 (row 10) ---
00
FF
00
FF
00
00
01
00
FF
01
00
01
FF
01
01
02
FF
01
00
FF
01
00
00
FF
01
FF
FF
FF
FF
01
01
00
00
01
00
FF
01
00
FF
FF
FD
00
FE
FD
00
00
FE
FD
FF
01
02
02
FF
FF
00
01
01
FF
FF
08
08
FF
00
00
FF
01
FF
FE
FE
FE
FC
FF
FF
FE
FF
FD
FF
FF
00
FF
00
01
01
01
FF
FF
FC
08
06
FE
00
FF
01
FF
FE
FD
FD
FE
F9
FA
FE
FE
FF
FE
FE
FE
FF
00
FE
FF
01
01
01
FE
FE
FF
00
00
01
FF
FE
FC
FA
FA
F3
F0
F2
F5
FB
F9
F7
FC
FD
FE
00
FF
FF
FF
00
00
01
FF
FF
00
FE
FE
FC
FB
F6
F4
FA
FE
FC
FB
FF
04
FE
F9
F4
F4
F5
F9
FB
FE
FC
FD
00
FF
01
01
01
00
F7
F3
F6
F4
FA
FF
FF
01
07
0A
07
01
01
01
00
FC
F7
FB
F3
FC
F6
FD
00
FF
FF
FE
FC
FE
F6
F0
F2
F7
01
FD
00
06
07
07
02
00
FD
FD
FC
F9
FA
FA
F4
F7
F7
01
FD
00
FD
00
F9
F7
FC
F6
FC
FC
00
00
00
01
01
FF
05
01
FF
FE
FF
FF
00
00
F9
F8
FA
FA
FF
01
01
FE
FA
F4
F6
F9
03
00
05
02
01
02
FD
FC
03
03
FE
02
01
FF
FD
FC
FA
FA
01
F7
00
FC
03
FD
F8
F6
FB
FD
04
02
04
01
00
FC
F7
FE
FF
FF
01
01
01
01
FF
00
FA
F6
FC
F6
FE
FB
03
F7
F4
FB
00
00
06
06
03
01
FE
FE
00
04
FD
04
02
04
FE
01
03
05
00
F8
FA
FE
FF
FE
FF
FB
F5
01
02
04
08
01
01
03
02
00
00
05
FD
FF
02
02
00
03
01
05
01
FE
FC
01
FF
00
FF
F7
F4
06
05
02
03
01
01
02
04
FD
FA
FD
01
FE
01
02
FF
03
03
03
01
F5
F8
FE
FF
02
FD
FA
F4
0A
01
FE
FF
00
02
00
04
02
FF
00
FC
FF
FD
FE
00
02
01
00
02
F5
F5
FA
00
00
FF
03
00
06
00
03
03
FF
FF
01
00
FF
FD
FE
FD
01
01
01
FF
FF
FE
00
FC
F5
F5
F8
FE
FD
04
09
08
02
06
03
03
FE
01
FF
00
02
00
FC
FE
FF
FE
03
01
FF
01
FF
01
FC
F5
01
FE
FE
01
00
F8
04
02
FF
00
01
03
01
FF
FE
02
01
FE
FF
FB
00
FF
01
FF
FB
00
FA
F3
FC
FE
FE
07
00
F8
06
00
FD
02
FE
FC
FF
01
03
03
FB
FB
FE
FD
FE
FE
FD
FE
FA
FE
FD
EF
FE
FE
01
00
FE
FD
07
00
FA
FD
02
01
03
04
07
02
FC
FE
FE
FE
FF
FF
02
FE
FA
FB
00
FC
F9
F8
01
00
FD
FE
07
04
03
01
FF
00
FE
FB
FB
F8
FC
FD
FE
FF
FE
FB
00
FE
FF
FF
FF
03
05
F0
00
FE
00
FF
00
02
FF
01
FD
FB
FC
F7
F5
FC
FB
FC
FF
FF
FC
FE
FE
FD
FF
FF
FF
07
00
F3
01
FF
FF
FF
FF
FC
FB
FA
F8
F9
FC
FD
FC
FE
01
01
FE
00
FE
01
FC
FF
FD
01
FF
04
FB
FC
01
01
00
FE
00
FF
FF
FC
FD
FC
FC
FF
FF
FE
00
FF
FD
01
FF
01
02
FF
FD
06
06
03
FA
F9
01
00
00
00
01
00
FF
FD
FB
F8
00
02
FF
FC
FD
FD
FF
01
00
00
FF
05
00
05
0F
FE
00
FC
FF
FF
01
09
FF
FB
FA
F7
F3
F6
FF
FA
FE
01
01
01
FE
FF
00
01
01
05
07
0A
09
F9
01
FB
00
00
01
00
04
00
00
FF
FF
01
0A
04
FF
00
FC
FC
FE
F8
FE
00
FE
02
07
09
0D
00
00
00
01
00
FF
01
FF
FF
FC
FE
01
FA
F6
F8
F7
F5
EF
F5
00
FA
F0
F8
02
04
01
FF
FA
00
00
00
00
// --- neuron 11 (row 11) ---
FF
01
01
01
00
00
00
FF
00
FF
FF
00
FD
00
FF
00
FF
00
FF
00
00
00
FF
00
01
00
FF
FF
01
FF
00
00
FE
FF
00
01
01
01
01
FE
00
FB
FC
FD
FE
00
FD
01
00
03
FD
FD
FF
00
01
FF
FF
01
00
FB
FB
FF
00
FF
00
02
04
05
02
FD
FC
FD
FC
F4
F7
FB
FF
FB
FD
FC
FB
FD
FF
FF
00
00
09
09
FE
FB
FA
FD
01
FC
F7
FD
FD
FF
FF
FE
FE
FE
F8
F5
FB
01
07
F9
F9
00
07
FF
01
FA
06
08
FD
01
FB
FD
03
FD
FE
02
00
00
00
FD
FE
FF
01
FF
FE
01
03
06
00
03
FE
FD
00
FF
07
03
00
00
FF
02
00
F9
FA
FF
00
00
01
01
00
FF
FE
01
01
FD
01
00
04
00
01
FB
00
04
02
FC
FD
FC
FB
00
00
FD
FD
FD
00
00
00
FF
FF
00
01
00
FF
FE
FE
00
00
FB
FE
FF
00
02
02
FE
FE
FB
FB
01
00
FD
FB
FE
FE
FE
FF
FF
00
00
01
00
00
02
04
01
01
FC
F4
02
FD
FC
00
02
FE
02
00
03
00
FE
FE
FB
FE
00
00
00
00
FE
FF
FE
FD
FE
FD
00
02
02
02
03
00
00
00
01
01
07
03
02
00
00
00
FF
00
FF
02
01
00
FD
FE
FD
FE
00
FF
01
04
04
02
06
FF
01
FE
01
FE
00
FE
03
01
01
FF
FC
FF
FF
03
02
00
FF
01
01
01
05
04
0A
0B
04
FE
FE
00
02
01
FF
FC
FE
FB
02
05
01
FE
FE
FE
03
02
03
00
00
FF
FA
FD
02
01
06
0A
0A
03
08
04
01
01
01
FC
F8
FA
FF
02
00
FF
FD
02
03
00
00
FD
FB
F9
F1
FA
FC
FB
FB
FC
0C
08
05
04
02
00
03
03
FB
FD
FF
00
FD
FF
00
04
02
FE
FD
00
01
FE
F5
F3
F7
F8
FA
F6
04
05
02
01
04
00
00
04
01
FB
FD
00
FD
01
00
02
FF
FE
00
02
03
01
FA
FA
FF
FF
FE
FE
06
01
02
01
00
02
02
03
FF
FB
FB
FD
FF
03
01
01
01
FE
00
02
02
FE
F7
FC
FE
FF
00
FC
FE
00
08
01
FD
02
00
01
00
00
FE
FE
FD
FF
01
02
01
00
01
04
01
FC
F9
FC
FE
FE
FE
FB
FD
05
09
FF
FC
FF
01
03
01
04
01
FE
00
01
FF
02
02
00
02
01
FD
FD
FB
FC
02
00
02
02
FF
03
00
FA
FF
FC
00
01
00
02
00
FE
FD
00
00
02
03
00
00
FF
FB
FE
01
FF
00
00
00
02
00
03
05
FF
FE
FF
FC
01
03
00
02
02
FF
FD
FE
02
03
FF
00
FE
FD
FD
00
FF
FF
02
00
FE
00
00
02
00
02
00
FD
FD
03
01
01
02
FF
00
00
02
00
01
02
02
00
FE
FF
FE
FE
FF
FF
FE
01
00
FE
FC
FB
FF
FF
02
08
01
00
FF
02
01
00
00
00
01
01
00
01
02
FE
FB
FD
FE
FD
FB
FA
FD
03
FB
FB
01
FE
03
FF
00
FF
FD
01
00
02
02
01
02
01
02
02
01
FC
FB
FE
FC
FD
FD
F9
00
03
01
FF
01
FE
05
02
FD
F9
00
01
01
01
00
01
01
01
02
02
02
00
03
01
00
03
02
09
0B
01
00
01
FC
FF
FF
FF
FC
FE
00
01
01
00
00
00
FF
FF
FE
FC
02
0A
05
00
03
09
08
FC
FC
FF
FF
01
01
01
00
FD
02
02
02
01
01
FE
FD
00
FD
FB
02
FF
00
FC
00
FF
00
04
05
02
02
00
FF
FF
00
06
01
FF
FE
FB
FE
02
02
03
FE
01
FD
FC
FE
FF
03
01
FE
00
01
FF
FD
00
00
01
00
01
00
00
01
FF
FF
FB
FA
FF
FA
FD
FF
00
FE
FF
FB
FE
02
03
03
FC
FD
FE
00
01
FF
00
// --- neuron 12 (row 12) ---
00
01
00
FF
01
00
00
00
00
FF
00
00
FF
FE
01
00
00
FF
00
FF
00
FF
01
01
FF
01
00
00
FF
00
01
FF
01
01
FE
FF
FF
FE
00
01
FE
FF
00
03
FC
FF
FE
FE
FD
02
FD
FB
00
00
00
01
00
00
FE
FB
00
01
FD
FF
03
02
FE
FA
FA
F8
F2
F1
F9
FE
FF
FF
FE
00
FF
FE
02
02
00
00
00
FF
02
02
FD
FD
F9
00
FA
FC
F7
FC
FF
03
F5
F0
EF
F1
F3
FA
FB
FC
FE
FB
FE
FE
FE
01
00
FF
02
02
FA
F6
F1
FA
04
00
FE
00
FF
04
00
FF
FC
F8
04
01
F9
FE
FD
FB
F6
FF
F4
FA
01
FF
02
FE
08
05
05
03
FE
FA
00
FD
01
02
FE
01
00
00
FC
FC
F5
FF
FE
FD
FF
FE
FC
FB
00
00
F8
FD
02
01
06
FF
F8
F5
FE
00
00
01
FA
FD
00
FC
FD
FB
FD
FC
FC
FE
FE
FF
FD
FA
02
FE
F9
FE
F9
FE
02
FD
F5
FB
02
00
00
FF
FD
FD
FF
FE
FD
FA
00
FD
02
01
01
03
04
FE
00
00
FF
01
FC
00
04
FF
FB
F9
02
FD
01
05
01
FF
FD
FE
FC
F9
00
00
04
01
FE
05
00
FD
FD
FF
01
01
F9
F9
00
FF
FC
FB
01
03
02
05
03
FC
FF
FC
F6
FB
FB
FC
01
02
FF
03
03
09
FE
FD
FE
FD
FD
FC
FB
00
00
FB
02
01
01
04
04
00
00
FF
F2
FD
F7
FD
04
04
03
02
03
0A
FC
FD
FC
FA
FD
FD
FB
FE
FC
FE
03
00
02
03
04
FF
00
00
FB
FC
FE
00
04
06
02
FA
FD
05
01
FF
FC
FA
FB
FF
FF
FF
FF
FC
FF
00
05
01
01
FF
00
03
01
FE
03
04
00
FC
02
FD
FF
04
01
FB
FD
FA
00
00
FF
02
04
00
FC
00
01
FE
00
FF
04
02
01
FB
FD
00
00
FD
FD
FC
FC
01
00
FF
00
FC
01
FE
FF
00
00
00
FF
FC
FF
00
00
00
00
FF
FF
F8
FB
00
FF
00
FF
FC
FE
01
02
00
FF
FB
FE
FD
FC
00
FE
FC
FC
01
02
01
FE
FD
FF
FF
FD
F7
FC
FF
FF
00
00
01
03
FE
04
FC
FF
FC
FE
FE
FD
FE
FC
F9
FC
02
FF
FF
00
FE
FF
FD
FC
FC
FC
01
00
FC
FE
FF
FE
FF
01
FC
FD
FC
FF
02
FE
FD
03
FC
FE
01
00
01
00
FF
FE
FF
FE
FD
FE
FD
00
FF
FE
FE
FE
F8
00
01
01
FE
FF
03
00
FE
FE
FC
F6
FE
FE
00
03
02
01
00
01
FC
FF
FE
FD
01
00
03
FD
08
FE
06
04
00
00
FF
03
FE
FD
FB
F3
FF
FF
FF
04
05
02
FC
03
FE
FC
FC
FE
FF
FD
05
03
07
FF
01
01
00
00
00
01
FD
FD
FE
F4
02
00
00
01
03
04
01
02
00
04
00
FB
FD
FC
FF
00
FF
FF
01
02
FF
00
01
FF
FD
FB
FC
FA
02
02
00
00
01
03
00
03
02
04
FD
F4
F7
FF
FF
00
03
FF
00
02
00
FF
00
FE
FB
F7
F7
FA
04
00
FF
FE
01
00
00
08
04
05
01
F2
FA
FF
01
03
01
FF
00
01
FC
FB
FD
FD
F8
F7
FA
FA
01
01
00
01
03
01
04
06
04
05
05
FF
FA
FF
00
05
00
FF
00
03
FF
FA
F9
FC
FE
FD
FE
F7
F6
FC
FC
FE
00
FB
FD
01
04
02
01
FC
FA
00
FC
FE
FF
00
FF
03
00
FB
F8
FD
FF
FF
FD
FE
FB
F6
F2
EF
EE
F8
F5
F7
FA
01
FB
FA
FE
FC
FE
FE
FF
00
00
01
02
FC
FE
FF
FF
00
FF
FE
FD
F9
F8
FC
FD
FC
FC
FD
00
03
FD
FD
00
FD
01
01
00
FF
01
00
FF
FC
F9
FE
FF
FF
FF
FD
FB
00
FF
FF
FF
FE
F9
FE
FD
FE
02
00
FF
FF
FF
00
FF
// --- neuron 13 (row 13) ---
00
00
FF
FF
00
FF
FF
01
00
00
00
00
03
02
02
01
00
01
00
00
00
00
00
01
FF
01
00
01
01
01
00
01
00
00
00
01
FF
01
FA
FB
F9
FF
FD
FB
FD
01
00
01
00
FF
00
01
00
00
FF
FF
00
FF
FE
01
FE
FE
FC
FE
FE
FD
FA
FB
FF
FE
FD
F9
FD
FF
FC
F7
F5
F8
00
FF
FF
FB
01
01
01
01
FB
F8
FB
02
FD
02
00
FE
FD
02
04
02
08
05
02
03
02
FF
03
F7
F3
F8
FD
03
02
01
00
FA
01
FE
01
01
FF
FF
FD
FC
FE
FF
01
02
01
03
04
01
00
FE
01
02
FA
F5
FD
01
00
FF
00
FF
FE
FC
FB
FC
03
01
01
02
FE
FB
FF
03
02
03
03
02
02
03
00
05
FE
F3
FE
FD
FD
01
00
FD
00
FF
FE
FC
FF
FE
00
00
FE
FC
FD
00
FF
FF
03
01
03
04
01
02
FE
F5
FF
FB
FF
04
FF
FC
FE
FE
FC
FE
FD
FE
FD
01
FE
FB
FB
F7
FC
FE
FE
FD
FE
02
01
01
FC
F5
F9
00
FF
02
F8
FF
FC
FC
FC
00
01
FE
FE
FE
FB
FA
FC
F9
FB
FD
00
00
01
01
02
01
FD
F7
F7
FF
02
01
FE
FC
FD
FF
FE
FF
FF
FE
FD
FC
FF
00
FF
00
04
02
03
00
00
01
01
00
FC
F6
F3
FF
FE
FE
00
FD
00
FE
FE
FE
FC
FD
FA
FD
02
04
04
05
06
02
02
02
FF
00
FF
FC
F6
F8
FB
01
04
00
01
FE
FC
FC
F9
FB
FC
FF
01
02
04
02
00
03
05
04
00
01
02
00
FA
F6
F5
F9
FD
03
FE
FF
02
00
FD
FC
FE
FE
FE
02
01
03
02
FD
00
04
03
01
00
FD
FC
FA
FC
FD
F8
F9
FB
04
FE
00
01
FF
FF
FE
FB
FE
FE
00
FF
FE
FC
FB
FB
FD
FE
FE
00
FE
FB
FD
FF
00
FE
FD
F9
05
00
01
FE
00
00
00
03
FE
FD
FF
FD
FB
FB
FA
F7
F7
FA
FC
FC
FD
FE
FF
01
02
FC
FC
FC
00
FF
00
F7
04
FB
FD
04
FF
02
00
00
FF
FA
F7
F6
F9
FA
FA
FD
FD
00
03
00
01
FD
00
FC
FD
FE
00
FA
05
FA
FF
04
04
FF
00
02
FF
FF
FC
F9
FB
FB
FE
FE
FC
FF
02
01
00
01
03
FB
FE
F8
01
FF
FF
FC
FF
04
01
FF
01
01
00
04
02
FF
FD
FF
00
00
00
FF
00
FE
01
00
02
FE
FC
FB
05
F8
FE
F8
FF
FB
FF
00
FE
FF
01
03
03
01
00
FE
02
01
01
FE
00
FE
01
01
FF
FB
FE
FC
FF
FF
FD
F4
04
00
01
FE
FC
01
01
03
01
01
01
01
01
00
00
FF
FD
FC
F8
FA
FB
FB
FC
FF
FC
00
FF
FB
FE
04
FF
01
00
04
02
FF
00
01
01
00
FC
FF
FD
FC
FC
FD
FB
FC
FE
FF
FE
FF
FD
01
FF
FF
FC
01
01
FE
FD
01
FF
FE
01
01
FF
FF
FE
01
00
02
FE
FA
FA
FC
FA
FD
FE
FE
02
01
FF
03
FC
F9
FF
FE
FE
FE
01
03
01
00
00
FD
FC
FF
01
FD
FB
FC
FD
FC
FE
FC
FD
FF
01
00
01
F9
F8
F4
F8
FC
FF
00
00
FF
FF
FB
FE
FE
FF
FD
FC
01
01
FF
01
01
FF
00
FF
00
01
01
FF
F9
FC
02
02
FF
00
00
02
FF
FD
00
01
01
FF
FE
FF
01
00
00
00
FE
FD
00
FF
FE
01
00
FF
06
FF
06
06
FE
FC
FD
FB
FB
FD
FD
FD
FC
FB
FE
FD
FE
00
FF
00
01
01
01
00
FD
00
00
00
00
01
01
03
01
FB
FE
FC
F6
FC
FC
F9
F9
FD
FC
FD
FE
FF
01
00
00
01
05
01
FF
01
FF
FF
01
00
05
FD
FD
FC
FD
FE
FB
FE
FA
F8
F8
FC
FA
FE
FD
FF
FD
01
02
FD
01
00
FF
00
// --- neuron 14 (row 14) ---
00
FF
FF
00
00
01
01
01
00
01
00
FF
05
07
08
01
01
00
01
00
FF
FF
FF
00
FF
00
FF
00
00
00
01
00
02
05
03
01
FE
FE
01
01
00
FF
FE
FE
02
01
FD
FE
00
FF
01
00
00
00
01
00
FF
FF
FF
01
03
03
03
02
00
FC
01
FF
00
00
FF
00
01
FD
FA
FC
FF
FF
03
01
03
02
00
00
FF
01
F8
FE
FD
08
00
02
02
F8
FE
00
FF
00
00
00
00
FD
FD
FC
FD
FC
FC
02
FF
FC
05
00
FF
FD
F9
FD
06
FF
FB
F9
FA
F1
FA
FE
FF
00
00
00
FF
FE
FC
FC
FD
FB
F8
F5
F5
FD
07
09
01
FF
FA
F9
01
F7
FD
01
FF
FE
FC
FD
FE
00
FF
01
FF
01
00
00
01
00
00
01
02
04
08
08
01
04
05
FB
02
FA
01
03
01
FF
FE
FF
00
00
01
00
FF
FD
FD
FD
FF
02
06
03
05
00
06
02
03
0A
08
01
07
02
04
02
FE
FE
FF
00
FF
FE
FF
FE
FD
FE
FC
FD
FB
FC
FD
05
07
06
07
04
00
07
01
FF
04
02
00
FF
FE
00
02
FF
FC
FE
FC
FE
FC
FE
FE
FF
FD
FE
FF
04
07
08
09
FE
FF
01
00
04
01
03
00
01
FE
01
FF
FE
FE
FE
FF
FC
FC
FF
FE
FF
FF
FF
FC
FD
07
10
03
03
FE
FD
FE
02
FD
02
01
00
00
01
FF
FF
FF
FF
FE
FD
FE
FE
FD
FC
FB
FC
FE
FF
07
09
05
04
FB
FE
FE
02
FE
FE
00
00
00
FE
FD
FF
00
FF
FD
FE
FE
FE
FC
F9
FB
FC
FE
FF
02
05
FF
FD
02
01
FF
FE
FF
FD
01
FF
FE
FE
FC
FE
FD
FB
FC
FD
FF
FC
FA
F9
F9
FA
FE
00
01
04
F4
01
00
FD
FE
FD
01
FF
00
FE
FD
FC
FD
FC
FD
FD
FD
FD
FE
FC
FC
FA
FB
FC
FE
00
00
05
F7
01
FD
FD
01
02
00
FF
FF
01
FD
FD
FD
FD
FE
FE
FE
FD
FE
FC
FC
FD
FE
FC
FE
FE
00
08
FD
FE
FB
03
02
02
00
FD
00
00
FE
FC
FE
FE
FE
FE
FD
FE
FF
FE
FD
FD
FF
FE
FF
FF
02
03
F9
F9
FF
08
02
02
00
FE
04
02
01
FF
FF
00
FF
FF
FC
FD
FE
FF
FF
FD
FF
00
FE
00
02
02
FB
FD
FF
05
F8
05
FF
FC
02
01
FF
FF
FF
FF
00
FF
FC
FD
FE
FE
FF
FF
00
FE
FE
00
02
01
FA
FB
FC
FF
F6
FE
FB
FC
FD
00
01
00
00
FF
FE
FD
FE
FE
FE
FF
00
FE
FF
FE
02
03
02
01
FA
F6
FE
FA
FC
FC
FC
FE
FB
FE
00
FF
FD
FD
FF
FF
FF
FD
FE
FE
FE
FE
FC
01
03
07
03
03
FE
FB
FF
FA
FA
FE
FC
FC
FC
FD
FE
FF
FD
FE
FE
FF
FE
FE
FE
FD
FE
FF
FF
00
06
06
06
03
FE
FE
01
FF
FF
FD
FC
FC
FD
FE
FD
FE
FE
FE
FF
FF
FE
FF
FE
FD
FE
FE
FE
02
05
02
FF
FB
F9
01
00
FE
FE
FC
FB
FA
FD
FD
FD
FD
FE
FF
FE
FF
FE
FF
FE
01
01
01
00
00
03
03
F9
FB
FF
00
00
FF
FD
FE
FD
FB
FC
FE
FD
FE
00
00
FE
00
FF
01
02
04
03
01
FF
01
04
FD
FD
F9
FF
01
01
FF
00
04
04
02
01
FF
FC
FD
FE
FC
FE
00
03
02
02
00
FD
FC
FB
F9
FD
00
FB
FC
FE
01
00
00
06
00
FF
0C
08
01
FF
FB
FC
FD
FD
01
03
01
01
FF
FD
00
FD
FB
FD
F9
F7
FE
FC
00
01
FF
01
02
02
07
08
08
07
02
00
00
FF
FB
FF
01
01
00
01
00
FF
02
01
FE
03
02
FF
01
FF
00
FF
00
01
FC
03
06
03
01
02
02
03
00
00
01
FF
FE
00
FF
02
07
01
FB
FF
00
00
FF
// --- neuron 15 (row 15) ---
01
00
FF
01
00
FF
00
FF
00
FF
01
00
01
03
07
04
FF
01
FF
01
00
00
00
00
00
00
00
FF
00
00
FF
FF
01
02
03
01
03
05
00
FF
01
02
00
02
00
FF
01
00
FF
FC
07
0D
00
01
FF
01
00
01
01
0B
0A
09
09
04
FF
FF
FF
FF
FF
FF
00
00
01
00
01
FF
FF
00
00
FF
00
04
00
00
00
00
FA
07
FE
FC
03
FD
00
FF
FF
FE
00
00
00
FF
00
01
00
FF
FF
FF
00
01
06
09
FC
01
00
05
F9
FC
FA
FF
FD
FC
FE
FE
FF
00
FF
00
FF
FE
00
00
FE
00
00
FE
FE
00
05
07
07
FB
FF
00
06
02
00
FF
FD
FE
00
00
FF
FF
FF
FF
00
FE
00
FF
00
00
FE
FE
00
FE
00
FF
03
F8
00
FB
03
01
FF
FF
FE
00
00
00
00
FF
FF
00
00
FF
00
FF
FF
FF
00
FE
FF
00
FF
00
FF
00
FF
FE
01
00
FF
FF
FD
FE
FF
FF
FF
00
01
00
FF
FF
FE
FE
00
00
00
FF
00
FE
00
00
00
04
05
02
00
00
FF
FE
FF
FF
FF
00
00
00
FF
FF
00
01
00
00
FF
00
FF
FF
00
FF
FF
FF
00
0B
03
00
00
00
01
FF
FF
FE
FF
00
01
00
00
FE
00
00
FF
00
FF
FF
00
FF
FF
00
FE
01
03
06
05
0B
04
04
FF
FE
FF
FF
00
00
FF
00
FF
FF
00
00
00
FF
00
00
FF
00
FE
00
00
08
01
08
04
02
04
03
FF
FD
FE
00
00
FE
00
00
01
00
01
01
FF
FF
00
FE
FF
FE
FE
FD
FE
06
FB
03
01
00
01
00
FE
FE
00
FE
00
00
00
FE
00
01
00
FE
00
FE
FE
FE
FE
FF
FF
00
01
FE
FF
05
FF
05
FF
FE
FF
FD
FF
FF
00
FF
FF
01
00
FF
FF
FF
00
00
FF
FF
FF
00
FF
02
02
FE
FF
08
FC
FD
FF
FE
FF
FF
FF
01
FF
00
FF
01
FF
00
FE
00
00
00
FF
01
00
01
03
02
01
FE
02
0A
FC
FF
00
FC
00
02
00
FF
00
01
01
00
FE
00
00
00
FF
FF
01
FF
FF
00
02
01
01
FF
FA
FF
FE
F7
06
FE
01
02
FE
00
FF
00
01
FF
FF
00
FF
FF
00
00
FF
FF
00
01
00
00
FF
FF
FF
09
FF
00
F9
00
00
01
01
01
01
01
00
FF
01
FF
FF
FE
FF
01
01
FF
00
FF
FE
FD
FD
FD
FD
0F
09
01
01
00
FF
FF
FF
FF
01
00
00
FF
00
FF
FF
00
00
01
00
FF
FF
FE
FF
FF
FF
FC
00
0B
01
09
05
FF
FF
FF
00
00
FF
FF
FF
00
00
00
00
00
00
00
FF
00
FF
FF
FF
00
FF
FB
01
05
01
09
01
FF
FF
FF
FE
00
FF
FE
FE
FF
FF
01
FF
FE
00
00
FF
FF
FF
00
FF
01
01
00
F7
FF
01
00
FF
00
FF
00
00
FE
FF
FF
FF
FE
FE
FF
FF
FF
FF
00
00
FF
FF
FE
FF
00
02
00
00
FF
02
00
00
FF
00
00
FF
FE
00
00
FF
FE
FE
FE
FF
FE
FE
FF
FE
00
FF
FF
00
01
01
02
FF
FE
00
01
00
00
00
00
FF
00
FE
FF
00
00
00
FF
FF
00
00
FF
FF
FF
FE
00
FF
FE
FF
00
FC
00
00
00
01
FF
01
00
FF
00
00
FF
FF
00
FF
00
FF
FF
FF
FF
00
00
FE
FF
FF
00
FF
FA
F9
00
00
01
01
00
0E
02
00
00
FF
00
01
FD
FF
FF
FE
FD
FF
00
FF
01
01
00
05
FE
F5
FC
FB
00
00
FF
01
FF
0A
00
00
01
01
02
01
FF
FF
FF
00
FF
00
01
01
02
00
02
04
05
09
FE
01
00
01
FF
00
FF
0B
0A
0D
02
00
FF
01
03
04
00
00
02
00
00
01
FF
FF
00
FE
FB
FF
01
FF
FF
// --- neuron 16 (row 16) ---
00
00
00
01
00
01
FF
00
00
01
00
01
00
01
FF
FE
00
01
00
00
00
00
00
00
00
00
FF
00
FF
FF
01
FF
02
01
00
01
00
01
01
01
FF
FF
FE
02
03
04
02
02
01
02
FF
00
01
FF
00
01
00
00
FF
04
01
FD
01
03
09
0E
0B
0E
0D
09
05
07
08
06
07
FF
02
05
05
05
07
03
01
01
FF
00
FC
05
04
FF
07
04
01
03
FF
FF
01
04
00
03
06
04
04
03
04
07
04
01
04
04
02
00
00
F9
FC
02
F9
03
03
00
02
01
06
00
01
02
02
FE
FE
00
01
02
FF
FB
FB
F7
F6
FA
00
FF
00
01
F7
08
FF
FD
FD
00
06
01
02
FD
00
01
01
01
02
01
FF
FD
01
FA
FA
FA
F7
F9
00
05
00
00
00
07
00
F9
01
00
FF
FF
01
FE
FF
FE
FE
FD
FF
FF
00
FC
FE
FC
FD
FA
F6
FD
FD
FC
FF
00
01
FE
FB
F8
03
00
00
00
FF
FF
00
01
FE
FF
01
FE
FE
FB
FE
FD
FE
FC
F3
FF
01
FE
FF
08
01
FD
F8
FA
FC
FD
FD
00
FD
FE
FC
00
00
FF
FF
FB
FB
FC
FD
FA
FC
00
ED
F7
FF
FF
01
01
00
03
FC
FB
FC
FF
FF
02
00
00
FE
FE
FF
FD
FC
FA
FB
FC
FB
FA
FF
01
F6
FA
00
01
01
01
00
FB
FD
01
01
01
01
FE
00
00
01
FF
FD
F9
FB
FC
FF
FD
FE
FB
FC
00
FF
FC
FC
FE
FF
FF
FD
F9
04
01
FD
FA
F9
FB
FB
FB
FA
F9
FB
F8
FE
FB
FF
01
FE
01
01
FD
00
F8
EC
FB
00
00
FF
F9
FC
F9
F8
FB
FF
FF
FF
00
FE
FF
FE
FF
02
FE
00
00
00
05
02
FB
01
FD
FC
FC
01
FF
02
FE
F4
F9
FC
FE
00
FF
FF
02
02
04
01
00
FF
FE
01
00
00
02
00
01
01
03
07
0A
05
F9
FE
01
FC
00
FF
01
FF
FE
FE
01
02
02
01
01
00
FE
02
FF
00
00
02
03
00
04
09
06
07
FA
FD
07
05
03
01
FD
FF
00
02
05
01
01
03
03
02
FF
02
00
03
03
01
FF
02
04
0B
04
FF
FB
FF
06
03
00
03
00
FD
03
01
04
02
03
04
02
03
03
00
02
03
04
03
00
01
0B
0A
08
FF
FD
00
04
00
03
08
01
05
02
02
01
FE
00
02
04
01
02
03
FE
01
03
03
FF
00
0A
05
FA
01
00
FA
FF
00
03
02
03
03
00
02
02
02
01
02
01
04
05
06
07
03
04
05
05
0F
03
F6
04
FF
FC
00
FA
01
FE
00
04
02
03
06
06
02
00
FF
01
02
04
05
07
04
03
05
05
06
00
FD
01
00
F8
02
FD
05
01
FF
02
02
01
01
03
FF
01
FF
FE
FD
FD
03
09
03
03
02
02
02
01
01
FF
FE
F9
00
FF
FF
01
FF
02
00
00
FF
01
02
02
02
FD
FC
FA
F9
FE
00
03
00
02
FC
00
02
01
FC
FC
00
02
03
03
FF
03
01
01
00
FF
FF
FF
FD
FE
00
FC
F8
FA
FE
FD
FC
00
FC
F9
F6
FF
00
00
FF
FC
FD
02
FE
FD
FF
03
02
FF
FD
FA
FE
FC
FB
F7
F5
F1
F8
FD
FE
FA
00
FA
F8
00
01
00
00
FD
00
FF
FC
04
03
FF
FD
FA
FA
FB
FA
FC
FC
FB
FB
F8
FB
FC
FE
F4
00
03
04
FF
00
00
FF
02
03
FE
FE
00
FD
FC
FE
00
00
FF
FF
00
FF
FF
FE
FC
FB
03
FE
FA
FF
03
05
FF
00
00
01
00
01
FF
FE
FD
FE
FF
FF
00
01
01
FF
00
00
00
FF
02
00
00
FF
00
FF
01
01
FF
00
01
FF
00
00
FF
01
01
01
00
00
01
01
02
00
01
01
02
01
01
01
FF
00
03
00
01
00
00
// --- neuron 17 (row 17) ---
00
00
01
FF
FF
00
FF
00
01
00
00
00
FE
FE
FE
FF
00
00
00
00
01
00
01
FF
00
00
01
FF
00
FF
01
00
FE
FE
00
FF
01
FE
FE
FF
01
FD
01
FE
FE
FF
00
FF
00
01
05
05
00
00
00
01
FF
FF
01
FD
FD
00
00
01
00
FF
00
FE
00
FF
FF
FF
00
00
FE
FE
FF
FF
00
00
FD
FE
01
FF
00
FF
03
FE
01
FB
FD
FC
FA
FE
FF
FE
FA
F8
FD
FF
FF
FD
00
FF
FF
01
00
01
01
00
03
00
00
FF
04
04
01
FE
FD
F9
FB
FD
F7
FB
F9
F8
F9
F9
FB
FB
FD
FD
FD
00
FE
03
08
02
FF
00
01
00
00
01
06
07
02
FE
FC
FE
F9
F9
FC
FF
01
FD
FB
F4
F2
F4
F9
FA
FC
FD
06
01
FE
00
FF
FF
FD
03
07
08
02
01
01
00
03
04
04
00
FC
FE
00
00
FD
FF
FD
FD
00
03
02
FA
FD
FF
FE
FD
06
0A
FF
00
04
04
01
03
06
01
02
03
FF
FF
02
06
03
03
05
07
02
00
FE
F9
FF
FF
02
FC
05
03
FF
03
00
05
05
04
07
06
04
01
03
03
01
01
05
03
01
01
01
02
FA
FB
FA
FF
FE
FE
00
FE
03
03
05
03
04
04
01
02
05
06
06
04
01
03
FF
02
FF
FD
FF
00
00
03
FF
01
FC
01
FE
FD
04
01
00
FE
00
01
02
02
00
04
02
06
07
07
02
02
03
00
01
00
FB
04
00
01
02
02
FF
FE
00
FF
FF
00
FC
FF
FC
F9
F7
F8
FB
FF
02
03
FF
01
01
00
FE
01
F6
01
02
02
02
01
FC
FF
FC
FB
F9
FF
00
FD
FA
FA
FC
F8
F5
03
03
FF
FF
FE
FE
FC
FB
F8
F0
05
FC
00
00
01
06
00
F9
FA
FE
FD
FB
F7
FB
FD
FC
F9
F9
01
FF
01
FF
FC
FE
FE
FE
FB
FD
F6
FA
FB
03
09
08
FD
FF
FE
FD
FC
F9
F8
FB
FF
F9
F9
FD
FF
00
01
02
07
03
01
FE
FC
F9
FA
FA
FE
06
FE
F9
03
01
FE
FD
FB
F9
FE
FC
FF
F9
FC
FE
01
03
03
03
02
06
06
03
F9
F5
F6
FC
00
03
FB
F4
FD
FE
FD
FE
FF
00
FF
FE
FA
FF
FF
00
03
02
02
00
02
03
06
02
FA
FE
F5
F3
FA
01
FF
01
F5
00
00
FE
FD
FC
FE
FE
FD
FD
01
00
00
02
FF
02
02
00
00
FF
FB
FF
F3
F2
F9
01
FD
FB
F3
F7
FD
FD
03
FF
FD
FB
00
04
05
00
FE
FE
01
00
FF
FB
F8
F7
F3
F3
F7
FC
FE
FF
00
05
FC
06
F5
F4
FC
FC
FC
FE
00
03
02
02
FF
FD
FE
F9
FB
FA
F7
F9
F6
FA
FC
00
02
00
03
FE
FB
F6
EF
F0
F8
F8
FB
FD
FE
03
02
00
FF
FC
FB
F4
F8
F5
F6
FA
F7
FC
02
01
FF
FF
FF
F7
F5
F7
F7
FA
F7
FD
FD
FC
FF
00
00
FF
FC
FC
FB
F5
F7
F4
F8
F8
F0
FF
07
02
01
FF
00
F7
F6
FC
FD
FB
02
00
FF
FF
FD
FE
FF
FE
00
FD
FC
F6
F7
F7
FC
FD
F5
02
06
01
01
00
01
F3
F3
FE
FC
01
07
FE
01
FC
FC
FB
FD
FE
00
FD
FB
F8
F8
F5
FA
FE
FB
FF
05
FF
01
00
01
FB
FB
FE
01
02
03
FF
FC
FD
FE
FB
FE
02
01
FE
05
FB
FF
FD
FE
FE
F7
FB
FE
00
01
FF
00
F5
00
00
F9
FD
00
03
FF
FE
02
01
FE
FF
03
04
03
05
04
FF
FE
FC
F9
FD
FF
01
00
FF
00
FF
FB
FE
00
FF
00
FF
FB
FD
01
FE
00
FE
00
01
FC
02
FE
FF
01
01
F6
F6
00
FF
00
FF
FF
FF
01
FE
01
04
02
00
03
08
03
04
06
0A
10
0D
FF
FB
F7
FC
FD
FE
04
FF
FF
00
00
// --- neuron 18 (row 18) ---
FF
00
FF
01
01
01
00
00
00
FF
00
00
FF
00
01
01
00
00
FF
FF
00
00
00
01
FF
00
00
FF
FF
00
00
00
01
01
02
03
02
05
FE
FD
FD
FF
FA
FA
FD
FC
03
FF
F9
02
FD
FF
00
FF
FF
00
FF
00
01
FE
01
00
FC
FB
07
06
0C
06
FC
FB
FB
FA
FD
00
FE
FE
F8
FB
FA
FC
FF
03
01
01
00
01
06
00
08
FE
01
02
02
01
F6
FA
F7
F7
FD
FF
01
01
03
06
0A
0A
0D
11
11
03
05
00
00
03
06
FA
FE
FF
00
FE
FA
FA
FB
FC
FA
FF
04
02
01
FF
06
05
04
05
02
08
09
03
F9
F6
FF
01
00
07
02
03
FF
FD
FB
FA
FD
FF
FB
00
01
00
01
02
02
FF
01
02
FE
FF
05
03
F9
FA
01
FE
FE
01
FF
FF
FF
FC
FC
FD
FB
FD
01
FE
FD
F7
F8
FE
01
FF
04
FF
FF
00
03
03
F9
FF
FF
03
FF
FF
FF
FC
FB
FA
F9
FE
FB
01
FD
FF
FE
FB
00
02
FB
F9
FE
FB
F9
00
05
01
FF
02
FC
00
FC
FC
FF
FE
FC
F8
FB
02
03
05
05
00
02
FB
F7
F9
F1
F4
F4
F3
F3
FB
01
04
07
03
FD
01
FA
00
FD
FC
F9
F5
F7
01
00
03
03
01
FF
F7
F6
F3
ED
F1
F3
F2
F7
FA
FC
FC
01
00
FD
05
00
FC
FF
02
FF
FD
F9
01
FA
FE
03
06
FE
FF
FE
F8
F5
F8
F3
F2
F4
F5
F6
FC
01
01
04
01
01
FC
03
00
04
FC
FA
FC
FE
FD
FF
05
02
FF
01
02
01
00
F9
FB
F7
F5
F9
FF
02
01
06
FF
00
06
04
FC
FE
F9
FA
FF
FE
00
FD
01
03
00
FE
FF
03
05
03
FF
FF
F7
F7
FD
00
FB
00
00
00
05
06
05
FD
F6
F8
01
04
01
02
01
02
FF
00
00
00
FD
03
01
FF
FE
F7
FE
FF
F9
00
FE
01
04
08
03
FB
ED
F4
F8
00
07
04
00
02
03
02
01
00
FD
FC
01
00
FD
FC
FF
00
00
00
FF
06
03
08
03
FF
F7
F3
ED
EE
F6
00
FF
FB
FE
FF
02
03
FF
02
FD
FD
FD
FF
05
04
FD
FF
F6
03
FA
00
FE
02
FD
FC
F0
EA
E6
FB
01
FC
FE
FD
01
03
FF
03
FF
FE
FA
FD
02
03
FD
00
01
FD
F5
FC
FF
07
04
08
00
F9
F9
F8
FA
F9
01
01
02
FF
03
00
03
FA
FD
01
04
01
07
03
03
04
FE
FB
01
04
03
07
08
08
05
FE
FB
00
02
00
01
FC
00
FF
04
FC
FB
00
FF
FF
08
05
00
0B
09
FF
00
04
02
01
03
05
05
01
04
02
FF
FF
FC
FE
FF
04
FE
FA
FC
FF
FD
FE
02
00
03
0B
0D
05
00
01
FF
00
01
03
02
00
01
00
FF
FE
00
01
00
01
FB
FB
FD
FE
01
F7
00
00
05
04
04
04
00
01
01
FF
00
05
04
03
02
02
00
FF
FF
02
FF
00
FA
FE
FD
FE
00
FC
FF
01
02
00
00
FF
FC
F8
F6
FF
00
FF
01
FF
02
01
FC
01
03
02
FF
FE
FC
FF
FF
00
02
02
01
00
01
05
FE
FC
02
03
01
00
00
FC
F9
F9
F9
F7
FC
FA
F8
F7
FB
FD
FD
FD
02
F9
FC
FF
FF
FF
00
F8
00
01
05
06
04
09
07
04
FB
04
02
00
FB
FB
FC
FD
03
05
02
03
01
FF
FC
FB
00
FF
00
FC
FF
FC
F7
FE
FA
FA
FF
FD
F7
F3
FB
FC
FB
FB
FA
FC
FB
FE
FF
01
FF
01
FF
FF
00
00
00
FF
04
02
01
FD
FB
F8
F9
FA
F9
FC
FF
FE
FE
FE
FA
FC
FF
01
FF
FC
00
00
00
FF
00
00
01
00
FF
FF
FD
00
FF
FF
FD
F9
FD
FA
FC
FC
FF
01
08
04
01
FF
FB
FC
01
01
FF
00
FF
// --- neuron 19 (row 19) ---
00
01
01
FF
00
01
FF
00
00
FF
00
00
01
06
05
02
FF
00
00
FF
01
FF
00
01
00
00
01
00
FF
00
FF
00
01
FF
01
00
01
03
00
00
02
FF
04
04
02
00
02
03
01
FE
FE
02
01
01
01
00
01
00
01
FE
FD
00
00
01
FF
FE
FC
FF
FF
FE
03
01
00
00
00
01
01
00
FE
00
FC
02
FF
00
01
FF
02
FC
FD
FE
FD
FF
FF
FF
FF
01
03
02
02
01
00
01
00
FF
00
FF
00
FE
FF
03
FD
FF
01
03
01
02
FE
FF
FE
FF
FF
00
00
00
00
00
01
FF
FF
FF
00
00
00
00
00
02
03
05
01
00
00
FF
FF
FF
FC
FE
00
FD
FC
FD
FF
00
FE
00
FF
00
FF
00
FF
00
FF
00
00
01
03
01
FF
FD
01
01
01
03
00
FE
FD
FA
FC
FD
FE
FF
FE
FD
FD
FF
FF
FF
FE
FD
FE
FE
FE
FE
FD
F7
FB
FC
01
05
FD
FB
FD
FE
FC
F9
F9
FC
FD
FE
FD
FE
FE
FF
FE
FE
FE
FF
FF
00
FF
01
FA
F9
FD
FE
03
07
05
FF
FB
FC
FC
FA
FD
FF
FE
FD
FD
FC
FC
FD
FE
00
00
FF
01
00
FF
FF
FE
FD
FD
FE
01
0A
06
00
FE
FC
FA
F9
FA
FD
FA
FB
FB
FB
FF
FF
FF
00
00
00
00
01
FF
00
01
05
FB
07
01
05
FF
FD
FF
FF
FE
FC
FC
FC
FC
FA
FC
FE
FF
01
00
FF
FE
FE
FC
FC
FA
FE
00
03
FD
06
FE
04
02
0A
05
02
01
00
00
FF
FD
FD
FD
FF
FF
FF
FF
FF
FD
FE
FC
F9
FA
FD
FF
FF
00
04
FF
06
07
09
04
02
03
02
02
02
00
FF
FF
01
00
00
FE
FF
FE
FD
FC
FD
FA
FD
FE
FF
FE
03
FF
06
08
05
03
01
03
FF
01
01
FF
00
FF
00
FF
FF
FF
00
FD
FD
FE
FC
FE
FE
FF
01
FB
FA
03
08
09
03
02
FE
00
FF
00
01
01
00
FE
FD
FE
FC
FE
FF
FD
FC
FD
FC
FD
FB
FD
00
FA
FF
00
03
05
00
FB
FB
FA
FB
00
00
FF
FE
FE
FD
FF
FE
FE
FE
FC
FD
FE
FD
FE
FB
FD
FF
FE
FE
FD
02
00
FC
FC
FC
FD
FC
FE
FD
FE
FC
FF
FE
FD
FE
FC
FC
FC
FC
FE
FD
FC
FD
FC
FB
FB
FE
00
FE
FF
FD
FE
FE
FE
FE
FE
FF
FE
FE
FF
FD
FF
FE
FF
FE
FD
FC
FF
FD
FE
FE
FD
FD
FC
01
FA
FC
FF
00
FC
FF
FE
FE
FD
FE
FF
FE
00
FE
FE
FF
00
FF
FC
FC
01
FD
FD
FC
FC
FE
05
00
01
05
FE
00
FF
FF
FF
FF
FF
FF
FE
FF
FF
FF
FF
FF
02
FF
FD
FD
02
FC
FD
FE
FD
00
01
01
00
04
FE
FF
01
00
00
00
FE
FF
FF
FE
FF
FF
FF
FF
FF
FD
FC
FF
03
FD
FD
FD
FC
FF
05
FF
05
03
FF
FF
FF
FF
00
FF
00
FF
FE
FF
FF
FF
FF
00
FE
FD
FD
FE
02
FB
FB
00
01
00
01
FE
03
02
FF
FC
00
00
00
FE
00
FF
FF
FF
00
FE
00
00
FF
FE
FF
FF
02
FC
FC
FC
FE
01
03
FE
FF
00
FD
FF
FF
FF
00
00
FE
FF
FF
FE
FF
FE
00
FF
FF
00
FF
00
FF
FB
FA
FA
FD
02
00
01
01
FF
FC
01
FE
FC
FE
FF
00
FE
FF
FF
FD
FE
FF
FE
00
01
02
06
03
02
FD
FC
FE
FD
05
FF
00
01
F8
02
FE
FB
F9
00
04
00
01
01
01
01
03
02
03
02
01
04
04
03
FE
FF
03
00
03
01
00
00
01
FE
FE
FA
FA
FC
FF
FE
FF
02
07
06
FF
01
FE
FF
00
04
03
03
03
FD
FC
00
FF
00
00
01
01
00
03
04
01
FD
FE
00
FF
FE
00
FF
FD
01
FB
FE
01
01
04
06
02
FF
FF
FF
01
00
// --- neuron 20 (row 20) ---
00
00
FF
00
00
00
FF
00
01
00
FF
00
02
06
07
03
00
FF
00
FF
FF
01
00
01
FF
FF
FF
FF
00
00
00
00
FF
FF
01
FF
FF
FC
03
02
02
FF
00
06
06
03
FE
04
05
07
08
06
FF
01
00
00
FF
01
FC
06
01
FD
FE
01
00
FE
03
03
FF
00
FF
02
FF
FE
00
FA
FD
00
04
06
03
FE
FF
FF
FF
FF
03
04
FD
FE
FD
03
02
FC
F8
FA
FF
00
FB
FC
FF
FE
FD
FF
01
05
05
01
03
FD
02
01
01
FE
04
09
06
02
00
FE
FB
F6
F6
F9
FE
FE
FF
00
01
01
01
FF
06
08
FF
FE
F2
F0
FC
05
00
FF
02
00
FF
FE
FD
FE
FA
FC
FB
FE
FF
FE
FF
FE
FF
FF
00
00
01
00
01
02
FF
F7
03
05
00
03
03
01
01
FE
FF
02
00
FE
FF
FF
00
FF
FE
00
01
00
01
FF
00
00
01
02
FF
FF
FE
FF
03
05
FC
02
06
03
01
01
00
FF
FF
FE
FE
FE
FE
FF
FF
00
FE
00
FE
FF
FF
01
00
00
02
FF
04
01
FB
03
02
00
FF
FF
00
01
FF
FF
00
FE
FF
FE
FF
FE
00
00
00
01
01
00
00
FF
05
F9
00
03
FE
02
03
01
FC
00
FF
00
FE
FF
FF
00
FF
FF
FF
FE
FF
FE
00
00
00
FF
00
00
FF
04
FD
01
FF
FF
00
FD
FE
FF
00
00
00
FF
00
FE
FF
FC
FD
FD
FE
FF
00
00
00
FF
FE
FF
FD
06
FD
00
FC
FB
01
FB
FF
FF
01
00
00
00
FF
FD
FC
FD
FE
FE
FF
FF
00
00
00
FF
FD
FA
FD
01
00
FB
FA
FB
FF
FC
00
00
00
00
FF
00
FD
FD
FE
FF
FF
FE
FE
00
00
00
FF
FE
FE
FA
F9
04
01
FD
FB
FD
FF
00
00
00
FF
00
FF
FF
FE
FF
FF
FF
FF
00
FF
00
FF
FF
FE
FF
FD
FC
F6
FE
01
00
FF
FE
00
00
FF
FF
01
01
FF
00
FF
00
00
FE
FF
00
FF
FF
FF
00
FF
FD
FB
00
FA
FE
00
03
02
FC
00
FF
FF
00
00
00
01
FF
FF
FF
FF
FF
00
FE
00
00
FF
FF
FD
FC
FE
FE
F8
FB
FF
05
01
03
00
00
01
00
01
FF
FF
01
FE
FF
FE
00
00
FF
FF
00
FF
00
FE
FB
FD
FB
F7
FB
00
02
FB
09
03
02
FF
00
FF
FE
FE
FF
00
FF
FF
FE
FF
FF
FF
FE
FE
FE
FE
FA
F9
FC
F7
FD
03
FD
FD
03
02
00
FF
FF
00
01
FF
FF
FE
FE
FF
00
00
00
FE
FE
FE
FE
FE
FA
F9
00
FE
FE
FC
02
FF
03
00
00
FE
01
00
01
FE
FE
FE
FE
FF
FE
FE
FE
FE
FF
FE
FF
FF
FF
00
04
00
03
00
FC
FB
FF
01
FF
00
00
FE
FF
00
FF
FF
FF
FE
FF
FE
FF
FF
FF
FF
02
00
01
06
07
07
FE
00
00
00
00
FE
00
FF
00
FF
FE
00
FF
FE
FF
FF
FE
FD
FE
FE
FE
FF
FF
00
01
04
06
05
00
01
00
FD
00
FD
01
FF
FD
FC
FE
FE
00
FF
00
FE
FF
FD
FF
01
FF
FF
FE
01
00
FB
FF
01
00
01
01
F7
F8
FE
FF
00
FF
FF
FF
FF
00
01
FF
00
00
00
00
02
00
00
FF
03
FE
FF
F8
02
00
FF
00
FF
02
03
00
00
FF
FF
FF
FF
FF
00
FF
00
00
02
00
01
FF
FC
FA
FC
FB
FA
F9
FF
FF
FF
00
01
01
02
01
FA
F7
FC
FE
FE
01
00
00
FF
00
FF
00
FA
FF
FC
FE
FF
F6
FD
00
FD
00
FF
01
00
04
FC
FA
FC
FF
02
00
00
FE
FE
FC
FD
FE
00
FC
FD
FD
00
04
05
FE
00
01
00
FF
00
01
01
FF
02
FD
FF
04
00
FF
01
02
01
00
FF
01
FF
FB
FD
FF
00
08
06
04
01
FF
01
00
// --- neuron 21 (row 21) ---
01
01
00
01
00
00
00
00
00
01
01
00
01
01
01
01
01
FF
00
00
00
00
00
00
FF
FF
00
01
01
00
01
FF
00
00
FD
FD
00
00
02
FF
FA
FD
02
FB
F9
FB
01
00
01
05
05
01
FF
FF
01
FF
FF
FF
FE
01
00
01
FC
FC
FF
01
05
FE
FF
FD
00
00
FF
FF
00
00
01
01
04
04
02
00
FF
00
FF
01
FD
01
FD
00
00
FE
02
FF
FA
F9
FB
FC
FB
FC
FC
FE
FC
00
01
FF
03
01
01
00
04
00
FF
FF
02
02
FF
03
06
FE
FE
F8
F7
FA
F9
F9
F9
F2
F6
F7
FF
FB
F6
FB
F7
FB
00
01
00
00
00
FF
FF
FE
01
09
02
FA
FD
FE
FD
00
FE
FD
FF
04
FF
FC
FD
02
FE
F9
F7
F4
FB
FF
01
01
00
FF
04
06
03
00
FD
03
FF
01
01
00
FD
FD
03
01
04
04
06
01
FE
02
FC
F6
F9
03
FE
FF
FF
FC
08
07
03
05
01
FF
02
00
01
01
00
FB
01
02
08
04
02
00
01
01
FF
FB
F7
F9
FC
FF
FE
FF
00
00
06
04
01
FC
03
01
02
01
FC
FF
01
03
04
04
00
FF
FF
01
FD
FD
FA
F4
FF
01
00
03
FC
03
00
02
04
FF
02
03
05
02
01
00
02
05
05
02
FF
01
00
FF
FE
F8
FE
F9
F9
FF
01
03
03
02
FB
00
05
FD
05
03
04
05
01
02
FF
00
02
02
02
FF
FF
01
FD
FF
FC
01
F4
FD
01
FE
06
FF
FE
01
02
00
03
03
04
00
FE
03
FE
FE
02
05
04
00
03
02
FE
FE
04
05
FC
FE
04
00
FE
FB
03
02
02
03
00
04
01
01
FA
FA
FC
00
02
05
05
03
03
01
01
01
F9
F8
F4
FD
00
FD
FD
FF
07
04
06
03
00
FF
00
FD
F9
FD
FF
02
03
05
03
03
03
04
06
FD
FB
FC
FB
00
FB
FF
FE
06
08
02
02
FF
FF
FF
FF
FC
FC
FE
00
04
03
03
02
03
04
00
FE
FD
F7
FF
04
FF
FF
FE
FF
04
05
02
FF
FE
FF
FE
FF
FE
FD
FC
FE
02
04
05
01
01
01
FD
FA
F8
FC
FE
FD
00
00
05
FD
FE
FF
FF
FF
FD
FC
FC
FE
00
FD
FB
FD
FF
03
01
FF
FC
FF
FC
00
FD
FA
F6
FA
FE
00
01
F3
FF
F8
F9
FB
01
00
FD
00
FE
FD
FC
FD
03
02
00
01
FF
FF
FF
FE
FB
F5
FB
FC
FC
0D
01
F4
FF
FA
FA
FE
01
00
01
03
02
FB
FF
01
02
00
01
00
FD
FF
FC
FA
F7
EF
00
FB
02
03
FF
02
03
FC
FD
FF
00
FD
F8
FB
FB
FF
FC
FD
FE
FF
FE
FD
FE
FF
FD
FB
FE
F8
FC
F7
02
FF
FB
F6
00
FF
FB
F9
FB
FD
FB
FA
FC
FD
FD
FD
FD
FD
FC
FC
FE
FB
FD
FD
FD
06
08
F7
FF
00
FE
F8
FA
FE
FD
F7
FA
FD
FF
FE
FD
FD
FC
FD
FE
00
FD
FD
FD
FC
FD
FD
FE
02
05
F4
FF
01
00
F4
FE
01
F9
F7
02
02
00
00
FD
FE
FE
FE
FD
FC
FE
FE
FB
01
FC
00
FB
F8
FB
F6
FF
01
00
F0
01
FD
F9
FB
FE
00
FB
FF
FC
FD
FE
FC
FB
FC
FD
FE
FE
02
04
07
FC
FE
FB
F3
00
00
01
F9
F2
F7
FF
00
02
FF
FF
FD
FC
00
FC
FB
FF
FC
FF
FF
00
06
01
FD
00
FB
F6
F9
FF
01
FF
06
F5
F7
06
03
03
02
04
01
FE
02
FE
01
FE
00
02
06
07
05
01
FF
FE
FD
FC
F8
00
00
00
FF
09
03
08
10
12
09
0A
04
08
0D
0F
14
08
05
09
0A
0D
0D
06
04
04
09
FF
FF
FF
01
01
00
00
01
00
04
06
06
03
FA
FC
04
08
09
01
01
03
08
02
FF
01
03
FF
FF
00
FF
01
// --- neuron 22 (row 22) ---
01
01
00
01
00
FF
FF
FF
00
FF
00
FF
04
0A
0B
09
01
00
00
01
FF
FF
00
01
FF
00
00
01
00
FF
FF
FF
03
06
02
03
06
03
FE
01
07
10
07
08
07
04
04
F2
FA
00
00
03
00
00
00
FF
FF
00
FE
09
0A
FE
FF
06
00
00
00
01
03
01
06
09
0C
08
04
01
00
00
FB
02
05
06
01
00
01
00
09
05
F8
FF
FD
00
FF
FF
FE
FF
FF
00
02
02
01
03
02
02
03
FF
01
FD
00
FE
FD
FF
FF
F9
07
FD
F9
FA
FB
FE
FF
FF
FE
FE
FD
FD
FF
FF
00
01
01
01
01
01
FF
F9
FB
FD
FF
F7
01
00
FC
F9
FE
FD
FF
FF
FF
FE
00
FE
FF
FD
FD
FF
01
02
03
FF
02
01
01
FF
FB
FE
F9
F4
00
04
08
01
00
FE
00
00
00
00
FF
FE
FE
FF
FF
FE
00
00
00
FF
FF
00
FF
FF
00
FE
0D
F8
01
07
08
00
FF
FD
FF
FD
00
FF
FF
FF
FE
FE
FF
00
FE
FF
FF
00
FF
FF
FE
00
04
05
06
04
FE
FD
FF
FE
FF
FE
FE
FF
FE
FF
00
FE
FF
FD
FC
FD
FE
FD
FE
FF
00
01
01
FD
FF
02
05
06
FF
FE
FE
FE
00
FD
FF
00
FF
FE
FE
FF
FD
FE
FB
FC
FD
FF
FF
01
00
00
FF
FB
FC
FD
07
FA
FD
FB
02
00
FF
FD
FE
FF
00
FE
FE
FF
FE
FE
FC
FE
00
00
00
01
00
FF
FF
FD
FD
FD
01
FC
FE
FA
01
00
00
FE
FD
00
00
00
01
FF
FF
FF
01
00
00
00
00
00
00
FE
00
FE
FF
FE
01
FC
FC
FD
FB
00
01
FF
00
00
02
01
01
03
02
02
01
FF
FF
00
FF
00
FF
FF
00
00
00
01
FD
F9
FE
F7
FD
04
03
02
FF
01
01
00
02
02
02
00
00
00
FF
00
00
00
01
FE
FF
FF
01
00
FF
03
FC
FF
00
04
02
02
01
00
01
01
01
01
00
FF
FF
FF
00
FF
FF
00
FF
00
FD
FE
00
FF
00
01
FA
05
FF
00
00
02
00
FD
FF
FE
FE
FD
FF
FF
FE
FE
00
FF
FF
FF
01
FE
FD
FE
FF
00
FF
FF
FD
0C
0C
01
FF
FE
FD
FD
FD
FE
FC
FD
FE
FD
FE
FF
00
01
00
00
00
FE
FE
01
FF
00
00
08
FF
08
FE
03
00
02
01
FF
FE
FE
FE
FF
FE
FF
FE
00
FF
FE
FF
00
00
00
02
00
FF
FF
FD
0A
F9
01
FA
02
02
02
01
01
FF
FE
00
00
FF
00
FF
00
00
00
FF
01
FF
00
02
00
FF
00
FE
FC
FE
FE
F5
02
02
00
FF
FF
00
FF
00
FF
FF
FF
00
FF
FF
00
FF
FE
00
FE
FE
FD
01
00
01
FE
00
FE
F9
00
FF
00
FF
FF
FE
FD
FF
00
FF
00
FF
FF
01
00
FF
FE
00
FF
FE
FF
FD
FF
FA
FC
FD
FA
FF
FF
FD
FE
01
01
FF
FE
FE
FE
FF
FF
00
00
00
FF
FE
FD
FE
FE
FD
FF
FE
FF
F5
03
FE
FE
FE
FF
FE
FB
FF
FF
FE
FF
FF
01
00
FE
FF
FF
FE
FE
FF
FD
FD
FC
FD
FF
00
01
FA
02
01
FF
FF
FF
FD
FF
FF
FF
00
01
00
01
FF
FF
FF
FE
00
FE
FF
00
FE
00
FE
FF
01
FF
02
01
01
00
FF
FF
FF
FF
FF
FF
00
01
FF
00
FF
FF
00
FE
FF
FF
FF
00
FE
FF
FE
00
FE
FC
FC
00
01
01
0B
FB
FA
03
FC
FD
FF
FE
FD
FD
FF
FF
01
FF
00
FF
FF
FF
FF
FD
00
F9
F8
FF
FA
00
FF
00
00
08
04
05
00
00
FF
00
FD
FE
00
FE
00
00
00
00
00
FF
00
00
FE
05
07
02
01
01
01
01
00
FF
04
FA
FE
00
00
00
FE
00
01
FE
FF
00
FB
FF
FF
00
00
00
FE
FC
01
01
01
00
// --- neuron 23 (row 23) ---
FF
FF
00
FF
00
00
FF
00
00
00
FF
01
FE
FC
FB
FE
FF
01
FF
00
FF
00
FF
FF
00
00
01
01
01
00
00
01
01
FF
FC
00
FA
FA
FD
04
00
00
01
F9
F9
FD
06
06
03
F8
FB
FE
00
01
01
FF
00
01
03
03
03
01
00
FD
FF
04
01
FD
FF
FE
FF
FF
FF
FD
FC
FE
02
05
03
02
FC
FC
01
00
FF
00
FB
06
04
01
07
01
04
08
07
04
FF
FF
01
04
04
03
FE
02
FD
FA
01
FF
01
03
FF
FF
01
02
FC
FB
02
07
01
01
03
04
01
00
FF
01
00
01
00
02
FF
00
FD
FC
FD
05
FB
FE
03
03
00
00
01
FD
FF
FF
01
04
02
01
FF
FE
FF
FF
01
00
FF
FF
00
FF
FD
FE
FE
03
F9
FD
FE
09
01
FA
FB
FB
01
01
02
04
FD
FE
02
01
01
00
00
02
01
FE
FE
FF
FE
FE
FE
01
FD
FB
F7
06
00
F2
FF
F9
FC
FD
FE
02
FE
FF
02
01
01
00
02
FE
00
FE
FE
FD
FE
FE
FD
FE
FE
FF
FD
00
01
FF
FF
FC
FB
FC
F8
02
FE
FD
00
FF
01
00
01
00
FE
FE
FD
FE
FD
FC
FD
FC
FE
FF
FD
02
04
FF
FE
01
FC
FE
F9
FD
FF
FE
FE
FF
00
01
00
01
FE
FD
FD
FD
FF
FE
FB
FB
FE
04
01
F9
05
FC
00
05
01
FB
FE
FC
FC
FB
FE
00
00
FF
FF
FE
FE
FF
FE
FD
FF
FD
FB
FA
FD
08
05
FF
F8
FF
07
0E
03
FC
FD
FC
FC
FE
FF
01
01
00
00
FB
FB
FD
FF
FC
FD
FE
FB
F9
FD
03
03
FA
FD
02
02
05
00
FD
FB
FB
FF
FE
FF
FD
FD
FC
FE
FC
FD
FD
FE
FD
FD
00
FD
FC
FF
FB
F9
FA
00
02
01
02
02
FB
FA
FE
FE
FD
01
FE
FA
F9
FA
FB
FE
FF
FC
FF
01
01
FF
FC
FE
FC
FD
03
FE
F9
F7
03
00
FC
01
00
FE
FE
01
FF
FD
FB
FD
FC
FB
FB
FE
01
01
03
00
FF
01
FC
FF
00
FD
FB
FD
08
FD
FC
02
00
FF
FE
FF
FF
FC
FD
FC
FC
FB
FB
FE
01
04
00
FF
02
02
00
04
09
03
F8
01
07
02
FE
02
01
FE
FF
FE
FA
FB
FD
FB
FA
FC
FF
FF
00
01
00
01
02
01
FE
03
09
01
FF
03
03
03
00
00
FF
00
FE
FE
FC
F9
FB
FE
FE
00
01
FF
01
03
04
03
02
00
FF
03
03
FF
02
FF
FE
01
00
FD
FC
FF
FF
FF
FD
FD
FE
FD
FF
01
01
02
02
02
03
04
FE
FA
FE
02
05
02
FD
03
FE
FF
FE
FE
FF
00
00
FF
02
03
01
00
02
01
00
FF
00
FE
FD
FA
FA
F6
FE
FF
FC
00
00
0E
03
00
FF
01
00
FF
00
01
03
03
03
03
02
02
02
00
FD
FB
FB
F6
F5
F5
FB
FC
02
03
FF
09
0A
02
00
01
01
FF
01
02
02
02
02
02
00
01
FF
FD
FC
FF
FD
FD
FE
FB
FA
05
FF
02
FE
03
0C
00
FF
FD
FD
FE
FE
FE
00
FF
FF
FF
00
00
02
FF
FE
01
03
01
FA
00
FD
00
FD
01
00
02
02
FE
FF
FD
FE
FE
FC
FC
FC
FB
FC
FC
FC
FF
FE
FE
01
04
05
FF
FC
FD
03
00
00
00
01
06
07
0A
08
03
02
01
FF
FE
FF
FE
FF
FF
FE
FD
FD
FD
FD
03
06
04
FF
FF
0E
05
00
FF
00
04
00
05
05
05
03
03
00
FF
01
00
01
FF
FF
FE
00
01
FF
02
00
FD
FD
F6
03
06
00
00
00
00
FB
FF
03
01
FF
FF
FE
FF
00
00
00
FF
FE
FF
00
00
00
FE
FF
00
00
FF
00
FF
01
00
FF
01
00
02
04
03
FE
FE
FE
F9
FD
FF
00
FF
FF
FE
00
FF
FD
01
FF
FF
FF
FF
00
FF
FF
// --- neuron 24 (row 24) ---
FF
FF
00
00
01
00
01
01
00
00
00
FF
00
FE
FC
FC
00
00
01
01
01
FF
FF
01
01
FF
01
FF
FF
01
01
00
00
FD
FC
FE
00
01
FF
FE
FF
FF
01
FD
F8
FC
FC
01
FF
F7
FF
02
00
01
01
01
00
00
FF
F8
FF
F9
05
05
03
04
03
00
00
00
00
01
00
00
01
FF
FE
00
05
03
02
00
FF
01
01
00
07
FC
F3
01
02
00
01
01
01
FE
00
FF
FD
FE
FF
FF
FF
01
00
04
02
FC
05
04
FC
00
01
02
0A
04
FC
00
00
FE
FF
FD
FF
FF
FF
00
FF
FE
00
FF
FE
FE
FE
00
01
FD
F9
FD
FD
FB
FF
FF
08
FC
FD
FF
FD
FD
FB
FD
FF
00
00
00
00
00
00
FF
00
FF
FF
01
01
FE
F8
FD
FC
05
00
04
00
FE
FD
FF
FD
FE
FF
00
00
00
00
00
01
00
FE
00
00
00
FE
FE
FE
FD
FD
01
0C
0B
01
0A
FE
FE
FD
FC
FC
FE
FF
FF
FD
FE
00
00
02
00
FF
00
FF
FF
00
FF
00
FE
01
01
0A
00
F9
FE
FA
FE
FE
FD
FE
FC
FE
FD
FC
00
FF
FF
00
00
FE
00
FF
00
00
00
00
00
FD
00
03
FE
FF
FF
F7
F9
FC
FF
FE
FD
FE
FC
00
FF
FF
FE
FF
FE
FF
FD
FF
FE
FF
FF
01
01
FE
02
05
FD
FF
FA
EB
F3
FD
FE
FE
FE
FD
FF
01
01
FF
FE
FF
FD
FD
00
FE
FF
FE
00
02
00
FF
03
07
FD
FF
F7
EC
F4
FD
00
00
FF
01
FF
00
FF
00
00
FF
FF
FE
FF
FD
00
00
01
01
FF
01
FE
00
F8
FB
F9
F3
F5
FC
FF
FF
01
00
FF
FE
FF
00
FF
FF
00
FE
FF
FF
FF
00
01
FE
00
01
01
FF
02
02
FC
FB
FB
FF
FF
00
01
00
00
00
00
00
FF
00
FF
FD
00
00
00
FE
FE
FF
FF
FF
FC
00
01
00
FF
FD
FF
01
02
01
01
00
00
01
00
FF
00
FF
FF
00
00
00
FE
FF
FE
00
00
FF
FB
05
F9
01
03
02
05
02
00
FF
FF
00
00
FF
FF
FD
FD
FE
FF
FF
00
FE
00
00
01
FF
00
00
01
0E
0C
FA
08
07
0C
00
FF
FF
00
00
00
00
FE
FE
FE
FE
FE
FF
FF
FE
01
FF
FF
FF
01
04
04
0A
0A
FF
01
04
05
FF
01
FF
FD
FE
FF
FF
FE
FE
00
FF
FF
FF
FF
FF
00
FF
FF
00
01
03
04
08
01
FA
00
FF
03
01
00
FF
FF
00
00
FF
01
FF
00
FF
FF
FF
FE
FE
FF
FF
FC
FE
00
01
07
03
03
FE
FF
FB
FE
FF
01
01
FF
FF
01
01
01
00
FE
00
00
FE
00
FF
FE
FF
FE
FF
FF
FF
01
FF
FF
FF
FE
FC
FE
FD
FE
00
FF
FE
01
01
00
FE
FE
FE
FF
00
FF
FE
00
FE
00
FF
FD
F7
FD
00
FD
04
00
05
FF
FD
FE
FF
FE
00
FF
00
00
FE
FE
00
00
FF
FF
FF
00
FF
00
FF
FE
FA
FB
F7
00
02
01
02
01
02
02
FF
01
00
FF
FD
FD
FD
FF
FF
00
01
FE
00
00
01
00
00
FF
00
FF
FB
FF
01
01
01
06
07
00
FE
01
01
FF
FE
FF
FE
FF
00
00
00
FE
00
FE
00
FF
01
FF
00
01
02
01
FF
01
FC
0A
05
FE
00
03
03
FD
FE
FF
00
00
00
00
FF
01
FE
00
00
04
00
01
00
08
02
01
00
00
FE
00
01
FB
04
08
09
04
04
04
05
06
02
06
03
00
FF
01
FE
FB
F9
FD
FF
FB
02
00
00
00
00
00
02
FF
02
00
01
FF
04
04
01
00
00
04
00
FE
FD
F8
FA
FB
00
FB
FA
02
00
00
00
00
00
00
01
00
FA
FC
FF
01
01
00
03
03
FB
FA
F6
F3
F9
FC
FF
07
05
02
00
00
00
00
// --- neuron 25 (row 25) ---
01
00
00
00
00
FF
00
01
00
01
00
FF
04
02
FA
FE
FF
01
FF
00
00
00
01
00
FF
01
FF
FF
00
00
01
00
FF
FC
00
FD
04
FA
F6
F7
FB
FB
F9
FC
00
00
FF
04
05
07
07
03
00
FF
01
00
01
00
FF
02
01
04
03
01
08
03
FB
FB
FC
F8
FD
02
01
F7
FA
01
FB
FC
FF
08
04
FD
00
00
01
00
F6
03
05
08
0C
09
0D
09
FE
F9
FA
FD
FF
FE
FA
FC
FC
FC
FE
FE
FE
08
05
03
07
01
FF
FD
F9
02
08
06
07
06
0C
03
02
FF
FD
FC
FF
00
03
03
FB
FD
FE
FD
FF
01
02
02
08
0A
FF
FF
FE
FC
06
05
03
05
08
02
01
FD
FD
FE
07
03
03
03
FD
FB
FA
F8
F7
FF
01
02
0B
0C
00
00
FE
FA
01
02
03
06
02
01
01
01
04
FD
F8
FC
F8
F3
EF
F0
F4
F6
F3
F5
FE
00
04
08
01
01
FF
FD
01
04
07
04
00
00
03
03
FE
F5
EF
F9
FB
F8
F6
F9
FD
FC
F7
F7
FA
02
08
06
FF
FF
FF
FB
03
03
04
00
01
03
02
01
F2
EE
F1
FA
FA
FC
FC
FE
04
03
04
FE
F2
02
08
F9
00
FF
01
FE
02
01
05
02
FF
04
FC
F6
F0
F5
FA
FD
FF
02
06
04
03
01
04
FF
F9
F9
06
00
00
00
02
FA
02
02
06
00
FF
02
F6
F5
FA
F7
FC
03
05
03
01
FF
01
02
02
03
00
05
06
FB
04
FF
03
FC
00
03
03
00
01
FE
F5
F4
F7
FA
00
01
01
FD
FE
FB
FA
FE
FB
00
05
0A
03
03
03
05
00
FB
FF
01
04
00
00
FD
F7
F7
FD
00
04
00
00
FC
FD
FD
F8
FC
FF
02
05
0A
FE
04
01
02
02
FB
FF
03
05
00
FC
FB
FF
FE
FE
01
FD
FC
FE
01
FE
01
FD
FE
FF
06
07
02
02
02
FF
01
FD
FC
FA
03
03
00
FA
FB
F9
FA
FE
FD
FB
01
02
01
FF
00
00
01
04
0A
04
FD
01
FD
00
01
FB
06
FC
02
02
01
F7
FB
FF
FE
FD
FF
02
FF
FF
01
FF
FE
FF
02
02
02
02
06
02
FB
00
02
FD
09
03
05
03
FF
FA
F7
FF
03
FE
01
FE
FC
00
01
FF
FA
FC
FE
FC
FC
02
08
F9
F7
FF
00
01
09
03
06
01
02
FF
FB
FB
FE
00
00
FF
02
04
05
00
FE
00
FE
FD
00
01
05
F4
F7
07
FF
01
03
02
01
01
00
FC
FE
FC
FD
03
03
04
04
03
04
02
01
00
00
01
03
02
07
FD
FA
02
00
FE
03
F9
FC
FE
00
FC
F7
F8
FA
FD
FF
01
FF
FE
00
FD
FC
00
FC
02
01
07
07
F5
FD
00
FC
FC
01
01
F6
FB
00
00
FE
FF
FA
FA
FD
00
01
FE
02
02
FF
FD
FC
FE
01
FD
06
FD
FD
FF
FE
01
03
01
F9
F9
FB
00
FE
FF
00
00
FF
00
FF
FF
03
03
04
03
FE
FF
FB
F8
05
07
FF
00
00
02
01
03
05
FE
F7
F6
F8
F7
F8
F7
FC
FF
01
02
01
FE
FB
FA
FB
F8
F6
F9
00
02
FF
00
00
FF
FF
00
00
00
FC
FA
F9
FA
F6
F6
F5
F6
F0
EF
F4
F0
F2
F3
F6
FC
FA
FD
00
01
00
FF
01
01
02
02
FF
FE
FD
FE
FF
FF
FE
FF
FC
FC
FB
FC
FB
FA
FA
FA
FB
FF
00
04
FF
07
00
01
00
FF
00
FF
01
FD
FF
00
FF
FF
FE
FF
FD
FD
FE
00
FF
FC
FF
01
00
FF
FE
04
06
05
00
00
00
01
02
02
FF
FF
FF
00
00
FF
00
FF
FF
FF
00
01
02
04
05
03
00
01
FF
01
01
01
00
00
01
01
FF
FA
FE
FD
FE
00
FF
01
03
FF
FF
FF
FE
01
04
05
02
00
02
02
03
01
01
FF
01
// --- neuron 26 (row 26) ---
01
FF
01
01
00
00
01
FF
01
00
00
FF
03
01
02
01
00
00
00
00
FF
FF
FF
00
FF
00
00
FF
01
01
FF
00
00
FE
01
01
00
00
01
FF
FF
00
FF
02
FE
00
FE
03
03
05
07
05
00
00
01
00
00
00
00
03
FF
FF
FF
01
00
FC
00
02
00
FF
01
FF
FF
FD
FA
FC
FD
00
02
02
FE
00
FF
01
01
FF
FE
04
07
04
FF
FF
00
FD
FD
FD
FF
FF
FE
FB
FC
FC
FA
FB
FF
02
01
02
02
01
04
01
01
FD
FE
FF
05
FF
F8
FE
FD
FC
FE
FE
FF
FF
FE
FE
FF
FF
FD
FD
00
00
03
06
01
FD
02
06
00
FF
FC
FF
02
FD
FD
00
FF
00
FF
00
00
00
FE
00
01
FE
FE
FF
FE
01
04
05
01
02
05
05
FF
03
07
00
02
FE
01
FF
00
FF
00
00
FF
00
01
FF
FE
00
FE
FE
00
01
01
01
FD
00
02
02
02
05
04
FF
04
FF
01
00
00
00
00
FF
FF
00
FF
FF
00
FF
FF
FF
FE
FF
01
02
FE
FD
01
02
00
FD
00
02
01
00
00
00
00
FE
FF
00
00
01
FE
FE
FE
FE
FE
00
00
00
01
01
FD
01
01
FB
FA
03
00
FF
00
00
00
FF
00
00
00
00
00
FF
FD
FE
FF
FF
FF
00
01
02
00
FE
FE
FC
FE
00
FB
FE
FD
FE
FF
FF
FE
FF
00
FF
FF
FF
FF
FF
FD
FF
FF
00
00
00
00
FF
FE
FC
FB
FB
FE
FC
FF
FD
F8
F7
FF
00
FF
FF
FF
00
FF
FE
FE
FE
FE
00
FF
01
00
00
00
FE
FE
FD
FA
FA
FF
FE
FE
FD
F8
F6
FF
FF
00
FE
FF
00
00
00
FF
FD
FF
FF
00
00
FE
FF
FE
FF
FF
FF
00
FD
FB
FE
FF
FC
F8
FA
FF
00
FF
FF
00
00
FF
FF
FF
FF
FE
FF
FE
FF
FF
FE
FF
FF
FE
FE
FD
F9
F8
FB
FE
05
00
00
00
FF
00
00
00
01
01
00
FF
00
FF
FF
FE
00
00
FF
FF
FE
FD
FE
FD
FD
FE
FC
FC
06
05
FD
FE
FE
FE
FF
01
02
01
FF
00
FF
FE
00
00
00
FF
FD
FF
FF
FD
FD
FD
FD
F8
FB
FA
0B
03
FA
FF
FF
FD
FF
00
00
00
FF
FF
00
FF
FF
00
00
FE
FF
FF
00
FF
FC
FF
FE
F7
FA
01
03
FD
FD
FF
FF
FD
00
FF
FF
00
FE
FF
00
FF
00
FE
FF
FF
00
FE
FF
FF
FE
FE
FD
F8
F9
F9
00
F8
FF
00
FF
FE
FE
FE
FF
00
FE
FF
FE
FF
FE
FE
00
FE
FF
FF
FF
01
FE
FE
FF
FB
FB
00
01
F7
FE
00
FD
FE
FF
00
00
FF
FE
FF
FF
FF
FE
00
00
00
00
FF
FF
01
FF
01
01
FD
FE
FF
FC
FA
FF
00
FF
FF
01
FF
FF
FF
FF
FE
FE
FE
FE
00
FF
FF
FF
FF
00
00
01
00
00
00
FB
FF
FE
00
00
FF
FF
00
00
FE
FF
FE
FD
FE
FD
FE
FF
00
00
00
FF
00
00
FF
01
FF
01
FE
FF
FF
00
FF
FB
00
02
01
FF
FF
FE
FD
FE
FF
FE
FF
00
FF
01
01
FF
FF
00
01
01
00
03
04
FF
00
00
FE
FD
00
02
02
00
00
FF
FF
FF
00
01
01
00
00
00
FF
01
00
00
00
00
00
03
00
FF
00
01
F7
02
FC
02
00
FD
FD
FE
00
00
01
01
01
00
01
00
FF
FF
FF
FE
FF
03
03
F8
FE
00
00
01
04
FB
F7
FB
F9
FD
FF
FE
FF
01
01
02
02
01
00
FF
01
FF
FC
FB
03
04
0D
FE
FC
00
01
FF
01
FF
00
FE
FD
FC
FB
FD
FF
00
00
FE
00
FF
01
00
00
FF
FF
00
00
01
02
02
00
00
00
FF
FF
00
00
01
00
00
FF
FF
FE
FE
FD
FC
FE
01
FD
FD
FC
FE
FE
FB
FC
FE
FF
00
00
01
// --- neuron 27 (row 27) ---
00
00
00
01
01
FF
FF
01
00
01
01
FF
FC
FA
FD
FD
FF
01
00
00
00
00
FF
01
01
00
01
FF
FF
FF
FF
01
00
FF
01
00
FA
03
05
04
05
FF
FD
03
04
01
00
FF
FF
FD
01
04
01
01
FF
01
FF
01
03
01
02
03
03
00
FD
FE
FE
00
FC
F8
F6
FB
FE
00
FE
FE
FE
FF
00
FF
FE
FF
00
FF
FF
00
02
02
FE
03
07
03
02
01
FC
FB
FA
FB
F7
FF
FA
F1
F4
FC
FD
00
00
02
00
02
FD
FF
FF
04
02
FD
FD
01
FF
FE
FF
FE
FD
FE
FD
FD
FD
FE
FF
00
02
FD
02
FD
FD
00
FE
FE
FF
FE
FF
01
06
FA
FC
FA
FD
00
FF
FD
FE
02
01
FC
FF
FF
FF
FF
FE
FE
FA
FD
FC
FC
FC
03
04
02
FF
FF
FF
F7
F9
01
FD
FC
FB
00
FE
00
00
FE
01
FF
01
01
FF
FF
FC
00
FC
01
00
FE
06
01
03
FF
FD
F9
FF
02
FC
00
00
FF
FD
00
FE
00
00
01
01
FF
02
02
01
00
FE
FD
F9
F8
FD
02
01
00
FE
00
02
02
FD
02
00
FF
00
FE
FF
FF
00
00
00
FF
01
02
00
01
00
FB
F8
FC
05
0B
01
FE
FD
01
FD
FF
00
03
FF
FF
FE
FF
FD
FC
00
FE
01
01
FF
00
02
01
02
FB
FF
00
05
05
01
FF
FC
FD
FF
FD
02
00
01
01
01
FF
FE
FA
FB
01
03
FF
FE
03
FF
FF
FF
00
03
F4
FC
03
FE
FD
F7
F9
00
01
00
FE
03
02
03
02
FF
FA
FA
FD
01
FE
FF
00
FF
01
01
FD
FF
FC
04
F8
00
FA
F7
F4
01
06
01
FF
01
01
00
03
03
FE
FD
FD
FD
FD
FE
00
01
03
00
FF
01
FF
FB
F6
01
FD
FA
FA
FE
03
01
00
03
02
FE
00
02
FF
FE
FE
FD
FF
00
01
01
00
03
00
FC
FF
FD
01
FE
FF
FC
FA
FF
01
FC
FD
00
00
FE
01
00
FE
FF
FE
FF
00
FF
FE
FB
FF
FF
FC
FB
01
01
00
FF
FA
FC
01
FF
FC
FE
00
FE
FD
FC
FF
00
FE
00
FF
01
FF
FE
FD
FD
FA
FB
FE
FD
FF
01
01
FE
F7
FF
08
FA
FB
FC
FC
00
FE
FE
FE
FE
01
01
FF
02
FF
FF
FF
00
FC
FB
FE
FD
FE
FE
01
00
FA
FA
04
FE
FD
FD
FC
FB
FC
FB
F9
FE
06
02
01
01
00
00
02
01
01
FE
FC
FC
FE
FA
03
07
FD
F8
00
FD
FE
FC
FD
FB
F7
F9
F8
05
08
03
00
02
FF
00
02
01
00
FD
F8
FD
FF
FC
02
00
01
FE
01
FF
FF
FE
FC
FC
FA
F9
FE
07
08
02
FF
00
01
02
02
04
FF
FA
FB
00
FD
00
03
00
00
FE
01
FF
FE
FE
FD
FB
FD
00
03
07
05
01
01
01
02
01
02
02
FF
FC
F9
FD
FE
01
FD
00
00
00
FE
FF
FE
FE
FD
FB
FE
02
00
02
02
02
FF
00
03
02
FF
FF
04
FD
F8
FB
FF
04
02
FF
FF
FE
FF
FF
FD
FE
FD
FE
FE
FE
00
FF
FF
01
02
03
03
02
01
01
04
02
FF
FF
FF
01
01
00
00
FB
00
01
02
00
FE
FE
FF
FD
FF
FE
FE
FF
02
05
02
01
01
03
05
02
01
00
02
00
00
01
FF
02
FF
03
04
00
FA
FC
FC
FD
FF
00
FF
04
01
01
FD
03
04
03
08
07
03
03
07
06
01
01
00
F8
01
04
00
FA
FA
FA
F6
F2
F8
FA
FA
FE
01
01
01
00
00
FC
F8
F9
FA
FF
FC
05
FF
FF
00
00
F8
00
FE
FD
FC
FE
FF
FF
FE
FD
F9
F6
F6
F8
FA
FC
F9
FC
FC
FC
01
FE
00
FF
01
FF
00
FF
00
FF
00
FC
FE
FF
FD
FE
FE
FF
00
FF
FE
FE
FD
FE
00
01
00
01
06
00
00
00
FF
// --- neuron 28 (row 28) ---
00
FF
FF
FF
00
00
00
FF
FF
01
00
FF
03
01
FC
FD
FF
FF
FF
00
00
FF
00
FF
FF
01
01
00
01
00
01
01
01
02
02
01
00
FB
03
04
00
00
FE
00
FD
FF
03
05
05
06
07
02
FF
FF
01
01
FF
00
00
04
01
00
01
01
02
FE
FF
FF
FF
01
01
00
FF
FF
FE
00
00
00
05
08
07
FD
00
FF
01
00
F6
04
08
04
03
00
FF
00
01
FF
01
FF
FF
FD
FF
00
FF
00
FF
FF
FF
06
07
FC
02
00
01
FD
FA
FC
0B
05
02
FE
FF
00
00
FF
FF
FE
00
FF
FF
FF
FE
FF
FE
FE
F8
F8
FA
01
0B
0E
00
00
FE
FF
06
00
FF
FD
FE
FD
FF
FE
FE
FF
FF
FE
FF
FF
FF
FD
FD
FC
FC
FE
02
06
0D
0C
FF
FB
FD
FE
01
FC
FE
FE
FE
FD
FE
FE
FF
00
FE
FE
FE
FE
01
01
00
01
00
FF
02
00
FB
03
02
F7
02
FF
FF
FD
FD
FE
FE
FE
00
00
00
FE
00
FF
01
00
FE
FF
00
FF
01
01
FE
FE
03
01
FF
04
04
FF
FD
FB
FF
FE
FF
00
FF
00
FF
FF
FF
FF
FE
FF
FE
FE
FF
FF
00
03
FD
FE
02
FB
03
FE
04
FF
FC
FD
FF
FF
00
FF
01
00
00
FF
01
00
FE
FF
00
00
FE
FE
00
01
FD
FF
FC
FA
04
01
09
01
00
00
00
FE
FF
00
00
FF
FF
FF
FE
FE
00
FE
00
00
FE
00
02
00
FF
FF
00
FE
02
01
06
05
04
FE
FE
FE
00
FF
01
00
01
FF
FF
FF
00
FE
FF
FE
FF
FE
FE
FF
FD
FC
FE
FE
03
05
05
0C
02
FE
FD
FF
FE
FE
FF
01
FF
00
00
00
00
00
00
FF
FD
FE
FF
FD
FD
FA
F3
FD
00
01
01
09
FF
FC
FD
FE
FE
FF
FF
01
00
00
00
00
FF
FE
FE
FF
FD
00
FE
FE
FE
FE
FF
03
FE
FD
FB
08
FF
FD
FE
FE
FE
FF
FF
FF
00
00
FF
FE
00
FE
FD
FF
00
FE
FF
FD
FE
FF
00
04
FF
FB
F9
06
FE
FE
FE
FE
FE
FE
FE
FF
00
FF
FF
00
00
FF
FE
00
FF
FE
FF
FD
FD
FF
F7
00
07
FA
FB
04
02
01
00
FF
FE
FE
FF
FF
00
00
00
FF
FF
FF
FF
FE
FF
00
00
FD
FD
FF
F9
F8
01
FC
FC
03
FF
00
FF
FF
FD
FF
FE
FF
00
00
FF
FE
FE
FF
00
FF
FF
FF
FF
00
FD
FF
F9
F7
0B
FA
02
01
FF
FF
FF
FD
FE
FD
FF
00
00
00
FF
FE
FD
00
FE
FF
FF
FF
FE
00
FF
FE
FA
FB
02
F9
03
03
FE
FE
FE
FF
FF
FF
FF
00
00
FE
FD
FF
FF
FF
00
FF
FF
FF
FF
FF
FE
FD
FA
FE
00
F8
FB
FF
FE
FE
FE
FD
00
00
00
FF
FF
FF
FE
FE
FF
FF
00
FF
FF
FF
FE
00
04
00
01
01
FF
FE
F6
FD
FF
FF
FD
FF
00
00
00
FD
FE
FF
FF
00
FF
01
00
FE
FE
FF
FF
01
01
FE
0C
00
FF
FE
FA
FE
FF
FE
FE
00
00
FF
FF
FD
FE
FE
FF
00
00
00
00
FF
FE
FE
FE
00
FF
FF
FF
00
00
01
FA
FA
00
01
FE
FF
00
FC
FF
FF
FF
00
FF
00
00
01
00
FF
00
FF
02
FE
FD
FE
FF
00
01
FF
04
F9
09
0C
03
00
FE
FD
FD
FF
00
FF
00
FF
00
FE
FD
FC
FF
00
01
FF
FC
05
06
00
00
00
00
03
09
0E
06
FE
FD
FD
00
00
FE
FE
FF
00
FF
00
FD
FD
FF
01
01
FB
F8
08
05
00
FF
01
00
00
08
02
02
00
00
01
00
FF
FF
00
FF
FF
02
02
FE
00
00
04
03
FE
03
00
00
01
FF
FF
01
01
FC
FE
03
04
FF
01
00
06
00
00
00
FF
02
01
FE
FD
07
0E
0D
06
01
00
FF
FF
// --- neuron 29 (row 29) ---
00
FF
00
00
01
00
FF
00
FF
FF
FF
01
FD
FD
FC
FD
00
01
FF
00
01
01
01
01
00
FF
00
00
01
00
FF
00
FF
FD
01
00
00
00
00
02
02
FD
FE
F7
F2
F9
FF
03
03
00
FF
FC
00
01
00
00
00
FF
01
FC
FD
FF
FE
01
00
FC
FD
FE
00
01
00
00
FD
00
01
05
04
04
04
06
FD
FA
00
FF
00
FF
F9
FA
00
01
04
05
FC
00
02
FD
FA
FC
01
04
04
04
08
0C
0C
09
06
04
03
FF
04
00
FF
FD
FB
FC
03
02
04
04
FC
00
FF
F5
F8
FD
FB
F9
FE
01
02
04
03
02
06
0A
03
FB
F6
F8
00
01
F9
F8
00
FB
FE
FA
FD
FF
FD
FA
FE
FA
FD
FD
FE
FF
FD
FF
FD
FF
00
02
FD
FA
F5
01
01
01
02
FA
FF
01
FC
FE
FC
FC
FB
FD
FC
FB
F7
F7
FB
FB
F7
FC
FA
FC
01
03
FE
00
00
FF
01
04
00
F8
01
00
FE
FF
FD
FD
FE
FC
F9
FB
F8
FB
F9
FB
FC
FD
FA
F9
FE
03
FE
FF
02
FE
0C
F9
03
FD
FF
FF
FD
00
FC
FE
FD
FC
F9
F9
F5
FA
F6
FA
F8
FB
FF
FA
FB
FF
FA
FF
FC
FF
01
FC
FE
F5
FC
FF
FF
FF
FC
FC
FB
FE
FE
FB
F7
F7
FA
FC
FE
FD
FF
FF
FF
03
FC
F6
F6
F5
01
FC
F7
F3
FF
FE
00
00
00
02
FF
00
01
FE
F9
FF
FE
00
FF
FF
00
FF
01
FF
00
FE
F7
F5
02
00
F6
FF
01
01
02
01
02
04
04
01
06
02
FF
04
04
02
00
FF
FD
FF
FA
FD
FC
F8
F1
FB
FF
FB
F8
04
F9
01
01
03
05
03
05
07
0A
07
02
04
04
02
01
00
FE
FF
01
03
FE
FD
FA
00
00
FF
F9
01
FC
02
04
03
04
05
08
08
07
01
FE
03
02
03
02
03
01
03
03
07
05
02
FE
02
02
04
F6
00
01
05
04
03
05
04
04
07
05
00
01
02
04
05
02
03
01
02
05
06
03
00
F8
FE
03
04
02
06
00
03
01
03
03
03
01
05
03
00
04
04
04
01
01
01
01
03
07
04
FE
01
00
02
02
00
04
02
FB
00
02
05
02
01
01
03
01
00
06
06
04
01
02
03
05
01
FF
FE
00
01
FF
FD
00
02
03
FA
FD
FF
02
03
03
01
01
03
FF
03
06
03
01
02
03
02
04
04
00
02
FE
FE
00
FF
F8
FF
02
FD
FC
FF
00
05
03
04
01
01
06
03
03
03
01
00
00
01
01
01
FD
01
FF
FC
FB
04
04
01
02
F9
FC
FE
FB
FF
FE
00
03
04
00
00
01
01
02
FF
FD
FF
FE
FE
FB
FD
FB
F9
F8
FE
01
03
02
FD
F9
F9
F9
F8
F9
FB
FD
00
00
01
02
01
03
01
00
FC
FE
FC
F7
F9
F4
F3
FF
FF
03
FB
FA
FF
F9
FC
F5
F8
FC
FA
FE
00
01
02
01
01
FF
02
00
FE
00
FC
FA
F9
F6
F8
0A
00
03
02
00
FF
F7
F8
F9
FE
F9
FE
FE
FF
FD
FF
FE
FF
FE
FF
FE
00
01
FE
FF
FA
F6
FB
0A
00
FF
00
01
00
FD
FC
08
03
FD
FF
FD
FC
FA
F8
FD
FB
F9
FD
FD
FF
03
02
FA
FB
F9
03
07
FF
FF
01
FC
02
F6
04
06
00
FA
FE
FD
01
FF
FE
00
01
00
FE
FD
00
03
01
04
FD
F5
04
06
00
01
FF
FC
00
F5
F2
00
FC
F8
F6
FF
F9
F9
FC
FC
FB
F7
F7
F4
F4
F6
F4
FE
04
FC
FF
06
FF
00
01
01
FC
FD
F6
F1
EF
F5
F2
EE
F3
F6
F3
EC
F4
ED
F4
F0
EE
E4
E8
F6
FD
FF
FF
00
00
01
01
00
01
FF
09
F8
F6
F4
F3
F4
F3
F3
FE
F6
F6
F7
F7
F6
F6
FA
04
04
06
00
01
FF
01
// --- neuron 30 (row 30) ---
FF
00
00
00
00
FF
01
FF
00
00
01
00
FE
FD
FE
FF
FF
01
01
00
FF
01
01
00
00
00
00
00
00
01
00
FF
FF
FC
FE
00
FF
FE
FC
FC
FC
FE
00
01
01
00
FF
01
FF
00
05
06
01
00
00
01
00
01
FE
FC
FC
FE
FD
FD
FF
FF
FE
FE
FE
FD
FE
00
FE
FE
FF
FF
00
FF
00
03
03
03
00
01
00
00
01
FC
FA
FC
00
00
FF
FF
01
FF
FD
FB
FD
FE
FE
FF
01
FE
FF
00
FE
FF
01
02
00
01
01
02
08
06
FF
FF
FF
FD
FB
FC
FC
F9
F9
F9
FA
FB
FB
FB
FB
FE
FF
FD
FD
FF
00
00
FC
FF
FF
01
09
FD
FB
FC
FC
FE
FE
FC
F9
FE
FD
FD
FD
FB
F6
F6
F6
F5
F4
F5
F9
F2
F2
F7
00
06
00
00
01
08
07
FE
F8
F5
FD
FB
F7
01
FF
01
04
FF
FA
FE
FF
FF
01
04
FC
FC
F9
F5
F6
07
FD
07
FE
07
00
FD
FF
00
02
00
00
FD
FE
FE
00
01
FF
FE
03
FD
FC
FD
FF
FF
FD
FD
F9
04
FE
00
01
FE
01
FD
00
00
FE
FE
FF
FE
FE
FC
FD
FE
FD
01
02
FD
02
FF
FE
00
FE
00
F8
FF
FE
00
02
01
FF
FF
FD
FE
FE
FE
FC
03
02
FF
FF
FD
FF
00
03
FE
01
01
FF
00
01
FF
F4
FC
FE
02
01
00
FE
00
01
FF
FE
FF
01
03
04
03
FF
FA
FE
FF
00
01
00
02
01
01
FD
00
F6
FE
FF
05
02
02
02
02
01
FF
FF
00
00
04
06
06
FE
FD
02
FF
03
04
02
01
01
FF
FC
FD
FA
FE
01
00
FF
05
01
02
01
04
03
03
04
05
07
FD
F7
FC
02
03
05
01
01
03
04
02
FD
FF
FE
02
FF
01
08
02
04
06
04
03
04
03
02
03
02
F3
F5
00
02
02
02
FF
02
02
FF
F8
FA
FB
01
FF
07
09
04
FA
FF
03
00
02
01
01
05
04
F9
E9
FC
FE
FD
00
00
02
FE
FE
FE
FF
FA
FD
00
00
FD
FE
FD
FD
00
03
FD
04
FF
01
05
FD
EA
F5
00
FF
FD
01
00
00
FF
FB
FB
F8
FB
02
01
01
FC
02
00
00
04
02
01
03
FF
04
01
F0
EE
00
FE
00
FE
01
00
01
FD
01
FD
FA
F8
F5
FE
FF
01
FB
06
02
00
01
01
FE
FF
FD
F3
F3
FE
FD
00
FF
FF
00
01
00
05
05
04
FD
F9
F9
FF
FF
03
FA
FF
F9
FB
03
01
FE
FF
F5
EF
00
02
03
03
01
01
01
01
02
04
03
03
FB
FA
FE
03
04
FE
08
05
F6
00
FD
00
FC
F5
F2
FD
02
00
01
00
FF
FF
02
03
03
01
FD
00
F9
FD
03
00
00
01
02
01
F5
FC
FA
FA
F5
F7
FC
03
FF
03
FE
00
FF
00
FF
03
FE
FF
FC
02
F4
FF
03
00
FF
00
02
00
F3
F8
FD
F8
F6
FF
FF
00
FF
FD
00
FE
FF
FF
FE
04
FF
FD
00
FF
F3
04
05
06
00
00
00
01
F9
F6
FF
FC
FF
04
00
FF
FE
00
00
02
FF
FF
FF
04
00
00
FE
FE
F6
FE
04
08
FF
FF
00
00
01
01
06
01
02
01
FE
FF
FE
00
01
FF
FE
FF
00
02
00
FE
FA
00
F7
00
05
02
00
FF
01
01
01
01
08
FF
03
05
01
01
01
00
FF
FF
00
FF
00
00
01
00
03
05
F4
FE
02
00
FF
00
FF
FE
FF
05
03
00
FD
04
03
01
02
03
03
03
04
FF
01
02
05
FF
06
07
F8
FD
FF
00
00
00
01
00
FB
FE
FC
00
FD
FE
00
FF
FF
FE
01
01
FF
02
03
07
07
00
04
0C
04
FB
00
FF
FF
00
FF
01
FF
FF
00
FD
FB
00
01
02
FB
00
01
FF
F8
FC
02
00
FE
05
0A
0A
05
00
01
FF
00
// --- neuron 31 (row 31) ---
FF
00
00
00
00
00
01
FF
00
00
FF
FF
00
00
03
03
00
FF
00
00
00
01
00
00
01
01
00
FF
FF
00
01
FF
01
00
00
FF
FF
FF
00
FF
00
01
FF
FF
01
FF
FE
FF
FE
FF
00
00
00
FF
FF
01
01
01
04
02
00
00
00
01
00
01
FF
FE
FC
FF
FF
FF
FF
01
01
00
FF
00
FF
01
FE
00
01
01
00
01
0A
00
FC
F9
02
00
01
01
01
FF
FF
FE
FF
00
FF
01
02
01
FD
FF
01
01
FF
02
FA
FF
00
03
0C
F6
FC
01
01
01
02
01
01
FF
01
00
00
FF
00
FF
FF
FF
00
01
01
03
01
02
01
FF
00
FF
0A
00
FF
01
01
01
FF
01
FF
FF
02
FF
02
02
01
01
02
02
01
01
02
01
00
02
FE
FD
FF
00
01
00
00
00
01
02
00
00
00
00
00
00
FF
00
01
00
00
00
03
02
01
02
01
01
00
00
FF
FE
00
FF
03
01
02
01
00
00
00
00
00
01
02
01
01
01
00
03
01
02
01
03
01
02
00
FF
FF
00
00
00
02
03
03
01
00
00
01
00
01
02
03
02
01
01
01
01
00
01
02
01
03
01
01
02
05
FE
FF
01
00
03
00
00
FF
02
01
01
00
01
02
02
03
02
00
01
02
02
01
01
02
00
00
FD
05
FF
FF
01
FD
00
00
00
00
01
FF
FF
00
00
03
02
03
02
00
00
00
01
00
FF
01
02
04
FE
FF
FF
00
FF
FD
FF
00
02
01
01
01
01
00
01
03
04
02
02
02
01
01
01
01
FF
01
03
07
F7
FD
03
FF
01
02
02
01
01
00
00
01
00
02
02
03
02
01
02
01
00
00
01
00
FD
FC
FC
FB
F9
00
03
00
00
04
01
01
01
01
00
02
01
FF
02
03
01
01
01
FF
00
FF
01
00
01
FF
00
01
02
FC
F9
FF
02
03
01
02
FF
00
00
00
00
00
02
02
01
00
00
00
00
00
00
02
02
00
01
03
01
FC
F9
FF
01
03
FE
FF
01
00
01
00
00
03
03
03
02
FF
00
02
02
02
01
00
00
01
01
01
01
00
F4
00
01
01
01
01
00
01
01
01
01
