FF
00
01
00
FF
00
00
FF
00
FF
00
00
FF
FF
05
01
FF
00
01
00
01
00
00
FF
FF
FF
00
FF
00
00
FF
02
00
01
00
00
FF
FE
FE
00
01
FE
06
00
00
00
01
00
FF
00
01
FE
00
00
00
01
FF
01
FF
FE
01
02
00
00
00
00
01
02
FD
00
00
FF
FF
02
00
00
FF
FF
FF
00
00
00
01
00
00
0C
01
00
FE
00
00
FF
00
00
05
00
00
FF
FF
00
00
00
FF
00
02
FF
FF
01
FF
01
00
FF
00
03
00
FF
01
02
00
00
F9
01
FF
01
00
FF
FF
00
// --- neuron 1 (row 1) ---
00
12
00
00
00
00
FF
00
00
0F
00
00
05
00
FF
FF
00
FF
FF
FF
00
00
00
00
01
00
00
00
FE
00
00
04
01
01
FF
00
00
00
00
09
FF
FF
00
FF
00
00
00
00
00
01
01
00
00
00
00
00
00
00
10
01
FE
FF
00
00
00
00
00
00
00
00
00
00
00
03
FF
00
00
00
00
FD
00
00
00
00
00
00
00
00
00
FF
00
00
00
01
00
00
00
00
00
00
00
01
00
00
00
00
00
00
00
00
00
00
00
04
00
00
00
FF
00
FE
01
00
00
FF
00
00
FF
00
// --- neuron 2 (row 2) ---
FD
F6
01
00
0E
00
01
FF
FE
FF
00
00
00
FF
FE
01
03
FF
01
00
01
00
00
00
02
FE
00
00
00
00
00
04
00
FC
FF
FF
FF
00
FE
00
FF
00
FF
00
00
00
FF
09
00
01
02
01
FD
FF
FF
01
FF
01
FF
01
01
FE
02
01
01
FE
FF
FF
01
00
FF
06
FF
01
FF
00
FF
FD
FE
02
FD
0C
00
FF
FF
FF
00
00
FD
FF
00
FF
00
FF
00
00
FF
01
FF
FF
FF
01
0B
0B
FD
FE
00
02
02
01
00
00
01
02
03
01
05
FF
00
00
00
FF
00
08
05
FF
FF
FE
// --- neuron 3 (row 3) ---
00
FC
00
01
FE
00
FF
0C
00
FE
00
00
00
0A
FF
00
FF
FF
FD
01
00
00
02
FF
00
FF
01
FF
FF
00
00
02
00
01
FF
00
FC
00
FF
FF
FE
FF
FF
FF
00
01
00
01
01
FF
03
00
08
FE
FF
00
02
00
FE
FD
00
01
05
01
01
FE
00
FF
00
FF
01
FE
01
04
00
FF
FF
01
01
00
FE
FD
01
07
0C
FF
02
FF
00
08
00
00
00
00
00
00
FE
02
FF
07
01
FF
FD
FF
FA
FF
FE
FE
FF
FF
00
00
FE
02
FD
01
01
FF
00
02
00
04
FF
FC
00
FF
FC
FF
// --- neuron 4 (row 4) ---
FE
00
01
01
FF
00
FB
FF
00
FF
FE
01
00
00
FE
FF
FF
00
01
01
FE
FE
FF
00
02
FF
FF
00
00
03
00
03
02
FE
FF
01
FF
00
FE
FA
01
00
FF
01
00
FF
00
FE
00
01
01
00
FF
FE
00
02
00
04
FF
FF
FF
FD
00
00
FF
FF
02
00
FF
FC
00
00
FD
04
FE
FE
0C
02
FF
00
FF
00
F7
00
00
FF
00
FF
08
00
FC
0B
00
00
FF
00
FD
00
02
FF
01
01
FF
00
00
FE
00
00
01
02
02
FE
FF
01
00
01
F8
00
00
FE
00
FF
00
00
FE
02
FF
00
// --- neuron 5 (row 5) ---
00
FE
00
05
FF
FF
00
FB
00
FF
00
02
FF
FE
FF
00
00
00
10
00
FD
FF
00
00
FF
00
00
FF
00
00
FF
01
01
05
FF
00
0F
00
FF
00
FE
01
00
00
FF
01
00
FE
05
FF
04
04
FF
00
FF
00
03
00
FF
FE
01
01
00
01
00
00
FE
01
FD
FF
01
FF
08
04
FF
FF
00
01
00
01
00
FE
00
FE
FF
FD
08
00
00
FE
01
00
03
FE
00
00
0D
00
FF
FE
01
00
FF
00
05
FF
01
FD
FF
06
00
FF
00
04
01
01
01
FF
00
FF
FF
FF
00
01
00
00
0E
00
// --- neuron 6 (row 6) ---
05
00
00
02
FF
00
00
00
00
FF
00
00
00
FF
FF
FF
01
00
F3
00
01
00
00
FE
00
06
01
00
00
01
00
00
00
00
00
00
00
00
0A
01
FE
01
00
01
00
00
02
FF
FF
FE
03
FD
00
00
FF
00
FF
00
00
02
02
FE
FE
00
00
00
00
02
09
00
00
00
FF
00
00
FF
FF
01
05
00
00
FF
00
00
00
FF
FB
00
FD
00
FF
FF
01
FF
FF
00
FF
00
00
00
01
00
FF
00
FD
0B
00
01
FE
FC
FF
00
00
05
01
FD
FF
03
00
08
FF
01
00
FE
01
00
00
00
// --- neuron 7 (row 7) ---
00
00
00
FF
FF
00
01
00
00
FF
FF
00
00
00
01
00
00
06
00
00
00
00
00
00
FF
00
00
FF
FF
00
08
00
01
01
0A
FF
00
08
00
FD
00
FF
00
00
00
04
00
00
00
FF
03
00
FF
0A
00
00
00
FF
FD
01
FF
FF
FB
00
01
0A
02
00
00
00
FE
FF
00
03
FE
06
FF
FE
00
02
08
FA
09
00
FE
FF
FF
00
00
FF
06
FF
00
FE
00
00
FF
01
01
00
00
01
FF
FF
FF
00
FF
00
FF
00
FF
FF
FF
02
01
00
FF
FF
00
FF
00
FF
00
00
00
01
00
09
// --- neuron 8 (row 8) ---
FF
00
FE
FF
FB
03
00
FF
02
FB
FF
FD
FD
FF
FB
01
FF
FF
00
00
FE
FF
00
04
FE
FF
FF
05
01
00
00
04
FA
FE
FE
00
FC
00
FD
00
FE
00
FD
FD
01
FD
FE
FD
FC
00
02
00
FE
01
05
FF
FC
00
FA
00
04
04
FF
FD
FF
FF
FF
FE
FC
FF
00
FD
FE
01
FF
00
00
00
01
FF
FD
00
00
FD
FB
FD
FC
02
00
FE
01
00
01
01
FE
02
FD
FE
FE
FF
01
FB
FD
F9
01
FD
04
01
01
02
FD
00
02
04
FF
01
03
00
02
FF
00
01
02
FE
00
FD
FC
FF
// --- neuron 9 (row 9) ---
01
FF
00
FA
FF
FF
06
FF
00
FF
05
00
FF
FF
FE
01
00
FD
FF
FF
00
05
00
00
FE
FF
00
FE
01
FD
FA
04
01
FE
FF
02
FE
F8
00
FE
02
00
00
01
01
FE
00
00
00
02
03
00
00
FC
FF
FF
00
FB
FF
02
01
02
01
01
FF
FC
FE
00
00
07
01
00
01
02
08
FE
F8
01
FF
00
01
02
00
FF
FE
FE
00
00
02
FF
FD
F9
FB
03
00
FE
FF
FF
03
FF
00
02
FF
01
FF
FF
FF
00
01
FC
04
05
FF
02
00
00
FF
01
00
FD
07
FF
00
FF
00
03
FF
FB
